#include "model.hpp"

alignas(8) const unsigned char model_tflite[] = {
    28, 0, 0, 0, 84, 70, 76, 51, 20, 0, 32, 0, 28, 0, 24, 0, 20, 0, 16, 0, 12, 0, 0, 0, 8, 0, 4, 0, 20, 0, 0, 0, 28, 0, 0, 0, 128, 0, 0, 0, 216, 0, 0, 0, 36, 47, 10, 0, 52, 47, 10, 0, 40, 66, 10, 0, 3, 0, 0, 0, 1, 0, 0, 0, 4, 0, 0, 0, 194, 205, 245, 255, 12, 0, 0, 0, 28, 0, 0, 0, 56, 0, 0, 0, 15, 0, 0, 0, 115, 101, 114, 118, 105, 110, 103, 95, 100, 101, 102, 97, 117, 108, 116, 0, 1, 0, 0, 0, 4, 0, 0, 0, 156, 255, 255, 255, 34, 0, 0, 0, 4, 0, 0, 0, 7, 0, 0, 0, 100, 101, 110, 115, 101, 95, 57, 0, 1, 0, 0, 0, 4, 0, 0, 0, 198, 205, 245, 255, 4, 0, 0, 0, 7, 0, 0, 0, 105, 110, 112, 117, 116, 95, 51, 0, 2, 0, 0, 0, 52, 0, 0, 0, 4, 0, 0, 0, 220, 255, 255, 255, 37, 0, 0, 0, 4, 0, 0, 0, 19, 0, 0, 0, 67, 79, 78, 86, 69, 82, 83, 73, 79, 78, 95, 77, 69, 84, 65, 68, 65, 84, 65, 0, 8, 0, 12, 0, 8, 0, 4, 0, 8, 0, 0, 0, 36, 0, 0, 0, 4, 0, 0, 0, 19, 0, 0, 0, 109, 105, 110, 95, 114, 117, 110, 116, 105, 109, 101, 95, 118, 101, 114, 115, 105, 111, 110, 0, 38, 0, 0, 0, 72, 46, 10, 0, 64, 46, 10, 0, 176, 45, 10, 0, 160, 44, 10, 0, 16, 40, 10, 0, 0, 8, 9, 0, 232, 7, 9, 0, 216, 6, 9, 0, 196, 6, 9, 0, 176, 6, 9, 0, 168, 6, 9, 0, 148, 6, 9, 0, 128, 6, 9, 0, 104, 6, 9, 0, 216, 5, 9, 0, 72, 5, 9, 0, 56, 4, 9, 0, 40, 3, 9, 0, 24, 3, 0, 0, 8, 1, 0, 0, 0, 1, 0, 0, 248, 0, 0, 0, 240, 0, 0, 0, 232, 0, 0, 0, 224, 0, 0, 0, 216, 0, 0, 0, 208, 0, 0, 0, 200, 0, 0, 0, 192, 0, 0, 0, 184, 0, 0, 0, 176, 0, 0, 0, 168, 0, 0, 0, 160, 0, 0, 0, 152, 0, 0, 0, 144, 0, 0, 0, 136, 0, 0, 0, 104, 0, 0, 0, 4, 0, 0, 0, 210, 206, 245, 255, 4, 0, 0, 0, 84, 0, 0, 0, 12, 0, 0, 0, 8, 0, 14, 0, 8, 0, 4, 0, 8, 0, 0, 0, 16, 0, 0, 0, 36, 0, 0, 0, 0, 0, 6, 0, 8, 0, 4, 0, 6, 0, 0, 0, 4, 0, 0, 0, 0, 0, 0, 0, 0, 0, 10, 0, 16, 0, 12, 0, 8, 0, 4, 0, 10, 0, 0, 0, 2, 0, 0, 0, 2, 0, 0, 0, 4, 0, 0, 0, 6, 0, 0, 0, 50, 46, 49, 48, 46, 48, 0, 0, 50, 207, 245, 255, 4, 0, 0, 0, 16, 0, 0, 0, 49, 46, 49, 49, 46, 48, 0, 0, 0, 0, 0, 0, 0, 0, 0, 0, 108, 191, 245, 255, 112, 191, 245, 255, 116, 191, 245, 255, 120, 191, 245, 255, 124, 191, 245, 255, 128, 191, 245, 255, 132, 191, 245, 255, 136, 191, 245, 255, 140, 191, 245, 255, 144, 191, 245, 255, 148, 191, 245, 255, 152, 191, 245, 255, 156, 191, 245, 255, 160, 191, 245, 255, 164, 191, 245, 255, 168, 191, 245, 255, 142, 207, 245, 255, 4, 0, 0, 0, 0, 2, 0, 0, 165, 82, 239, 189, 99, 202, 106, 190, 219, 236, 78, 190, 53, 188, 131, 61, 147, 226, 14, 62, 95, 112, 6, 190, 202, 189, 83, 190, 123, 168, 182, 61, 191, 39, 25, 60, 80, 66, 225, 61, 33, 24, 204, 189, 239, 230, 60, 62, 201, 37, 195, 189, 135, 64, 171, 188, 232, 94, 143, 190, 231, 114, 183, 61, 65, 86, 144, 190, 205, 236, 94, 62, 98, 253, 134, 62, 182, 95, 187, 188, 17, 237, 180, 61, 25, 225, 32, 190, 1, 212, 139, 62, 53, 206, 203, 189, 100, 120, 41, 189, 186, 157, 209, 189, 165, 47, 29, 190, 59, 71, 133, 62, 6, 100, 88, 190, 89, 111, 21, 189, 78, 140, 143, 190, 173, 154, 39, 62, 149, 12, 0, 62, 225, 50, 42, 190, 39, 127, 139, 60, 146, 218, 130, 189, 139, 72, 20, 190, 11, 3, 45, 190, 138, 59, 109, 62, 244, 51, 156, 189, 212, 203, 112, 190, 150, 81, 101, 62, 237, 104, 70, 190, 251, 209, 87, 190, 246, 98, 134, 190, 158, 36, 145, 60, 58, 131, 40, 62, 73, 132, 130, 190, 148, 0, 199, 61, 168, 106, 181, 61, 44, 78, 1, 190, 226, 84, 15, 61, 181, 60, 109, 190, 255, 31, 0, 62, 127, 173, 113, 62, 51, 203, 93, 62, 78, 156, 31, 61, 6, 32, 236, 189, 64, 72, 146, 190, 198, 226, 147, 62, 64, 152, 58, 190, 111, 171, 103, 62, 208, 58, 71, 190, 18, 176, 181, 189, 182, 30, 186, 59, 111, 234, 51, 190, 237, 107, 95, 60, 20, 105, 111, 62, 76, 227, 11, 62, 156, 232, 199, 188, 91, 211, 147, 62, 192, 6, 35, 190, 104, 100, 44, 62, 104, 183, 97, 190, 11, 155, 120, 190, 25, 202, 167, 61, 105, 10, 77, 190, 27, 62, 225, 61, 103, 106, 249, 61, 180, 168, 79, 190, 136, 183, 234, 189, 142, 149, 92, 190, 36, 101, 157, 60, 112, 129, 134, 61, 206, 188, 11, 190, 142, 172, 110, 61, 229, 7, 234, 61, 210, 102, 230, 61, 253, 40, 98, 190, 45, 110, 15, 189, 53, 114, 114, 62, 47, 240, 94, 189, 244, 244, 64, 62, 146, 188, 6, 60, 220, 164, 130, 62, 17, 157, 234, 61, 123, 83, 75, 190, 94, 159, 46, 60, 76, 163, 86, 190, 188, 64, 145, 190, 171, 74, 88, 62, 53, 41, 142, 62, 22, 181, 23, 62, 94, 171, 136, 190, 210, 111, 192, 61, 64, 229, 70, 62, 163, 180, 56, 189, 142, 95, 233, 189, 144, 36, 131, 62, 1, 170, 150, 61, 28, 63, 119, 62, 57, 253, 117, 190, 132, 158, 37, 62, 166, 227, 129, 190, 12, 82, 31, 190, 189, 226, 137, 62, 174, 223, 36, 62, 6, 223, 117, 62, 152, 119, 113, 62, 95, 43, 237, 61, 240, 66, 6, 61, 61, 22, 69, 190, 105, 33, 145, 189, 194, 230, 231, 189, 142, 48, 82, 61, 82, 186, 239, 61, 221, 60, 255, 188, 87, 96, 126, 189, 154, 209, 245, 255, 4, 0, 0, 0, 0, 0, 9, 0, 134, 127, 154, 188, 22, 173, 116, 61, 121, 25, 92, 61, 195, 205, 180, 60, 113, 189, 15, 61, 5, 188, 196, 60, 141, 182, 14, 188, 180, 77, 159, 188, 251, 247, 70, 189, 240, 3, 97, 60, 5, 31, 77, 61, 98, 104, 188, 60, 157, 189, 26, 61, 196, 82, 101, 60, 148, 187, 114, 61, 118, 199, 49, 60, 112, 133, 78, 60, 88, 240, 28, 61, 112, 29, 163, 59, 60, 101, 41, 60, 63, 192, 35, 189, 205, 171, 31, 61, 121, 103, 66, 189, 136, 170, 79, 58, 253, 52, 3, 189, 229, 158, 38, 189, 179, 94, 220, 188, 93, 130, 133, 60, 119, 149, 208, 60, 208, 206, 201, 188, 198, 208, 54, 189, 95, 126, 24, 188, 235, 122, 19, 61, 170, 132, 17, 189, 138, 212, 82, 189, 101, 245, 219, 188, 61, 209, 121, 60, 135, 135, 67, 60, 30, 157, 16, 189, 23, 158, 108, 188, 187, 133, 85, 187, 188, 133, 219, 187, 174, 251, 18, 61, 136, 227, 61, 61, 150, 213, 52, 60, 52, 13, 81, 60, 56, 63, 131, 187, 84, 17, 12, 61, 67, 160, 57, 189, 165, 139, 144, 188, 154, 136, 203, 188, 152, 244, 116, 61, 15, 53, 1, 61, 224, 94, 185, 60, 118, 100, 53, 188, 169, 116, 34, 189, 151, 56, 139, 60, 240, 239, 80, 60, 123, 238, 48, 61, 198, 132, 157, 60, 101, 225, 172, 188, 123, 12, 227, 187, 206, 168, 86, 189, 110, 64, 214, 60, 87, 254, 247, 188, 199, 58, 26, 188, 248, 5, 143, 189, 68, 176, 31, 59, 76, 86, 205, 187, 43, 92, 159, 60, 0, 215, 223, 188, 133, 69, 175, 188, 174, 211, 199, 60, 64, 218, 200, 60, 6, 10, 23, 189, 112, 112, 144, 188, 124, 223, 16, 189, 14, 165, 92, 189, 244, 143, 85, 189, 93, 12, 31, 189, 71, 32, 32, 61, 206, 251, 86, 61, 250, 187, 6, 61, 68, 185, 217, 57, 170, 108, 69, 188, 241, 90, 11, 59, 183, 162, 83, 189, 117, 206, 46, 189, 239, 91, 15, 188, 90, 113, 149, 187, 77, 164, 52, 61, 5, 211, 230, 188, 162, 81, 97, 189, 88, 38, 227, 60, 191, 154, 95, 188, 168, 175, 103, 189, 183, 102, 39, 61, 242, 41, 222, 187, 44, 177, 69, 188, 21, 178, 102, 188, 198, 249, 249, 59, 12, 128, 12, 59, 97, 37, 216, 188, 40, 210, 113, 60, 70, 159, 158, 60, 172, 145, 196, 59, 248, 90, 15, 61, 247, 92, 104, 60, 230, 221, 19, 189, 0, 137, 32, 187, 70, 103, 90, 189, 237, 54, 4, 61, 55, 88, 11, 189, 111, 165, 33, 61, 64, 33, 222, 59, 0, 243, 128, 188, 71, 243, 123, 188, 200, 95, 138, 60, 243, 74, 61, 189, 0, 111, 70, 189, 71, 63, 25, 189, 13, 116, 159, 59, 95, 226, 40, 189, 143, 201, 3, 60, 181, 109, 193, 60, 53, 14, 159, 60, 74, 196, 92, 189, 22, 93, 77, 61, 231, 2, 210, 188, 83, 53, 108, 188, 29, 127, 137, 60, 65, 58, 214, 60, 6, 190, 210, 59, 147, 29, 145, 189, 91, 5, 11, 189, 64, 176, 37, 60, 142, 255, 142, 188, 192, 152, 220, 58, 200, 176, 245, 60, 37, 165, 167, 60, 0, 193, 128, 188, 53, 203, 217, 188, 172, 198, 132, 59, 242, 190, 187, 59, 73, 89, 162, 188, 250, 61, 24, 60, 12, 149, 25, 189, 33, 82, 71, 189, 100, 11, 97, 188, 98, 180, 149, 59, 26, 146, 62, 189, 228, 116, 4, 189, 132, 201, 145, 189, 206, 70, 49, 189, 183, 102, 24, 61, 111, 78, 45, 189, 231, 43, 79, 189, 251, 224, 29, 187, 209, 95, 195, 188, 40, 175, 37, 189, 239, 69, 164, 60, 236, 25, 211, 188, 77, 167, 64, 189, 97, 218, 134, 187, 107, 249, 156, 189, 118, 222, 6, 60, 28, 68, 102, 188, 254, 98, 214, 188, 126, 98, 36, 189, 51, 243, 132, 186, 167, 35, 171, 59, 23, 168, 52, 189, 76, 160, 102, 57, 210, 120, 122, 188, 233, 144, 116, 58, 45, 218, 61, 189, 208, 242, 69, 61, 234, 167, 149, 60, 237, 9, 249, 187, 94, 251, 112, 187, 172, 58, 11, 60, 80, 243, 4, 189, 77, 227, 136, 188, 219, 164, 126, 61, 28, 193, 69, 188, 154, 152, 157, 187, 254, 66, 50, 59, 230, 207, 76, 188, 125, 210, 103, 60, 50, 231, 138, 58, 13, 50, 227, 59, 130, 38, 246, 60, 32, 193, 221, 60, 164, 188, 144, 61, 236, 98, 253, 60, 184, 239, 222, 183, 164, 129, 174, 188, 181, 138, 7, 188, 93, 217, 37, 61, 59, 49, 130, 188, 139, 105, 227, 187, 114, 158, 54, 59, 148, 48, 87, 185, 216, 199, 220, 187, 21, 244, 98, 60, 133, 30, 34, 189, 62, 242, 139, 60, 43, 220, 42, 61, 48, 145, 233, 188, 247, 21, 95, 188, 91, 86, 152, 188, 68, 54, 174, 58, 241, 58, 217, 60, 144, 166, 158, 60, 249, 113, 59, 61, 3, 221, 69, 189, 56, 87, 112, 60, 28, 214, 21, 189, 219, 191, 88, 189, 93, 204, 88, 61, 174, 121, 87, 189, 10, 66, 18, 60, 240, 14, 222, 188, 254, 65, 38, 60, 145, 81, 134, 188, 185, 174, 35, 189, 51, 56, 77, 60, 208, 35, 251, 60, 68, 74, 174, 60, 55, 12, 134, 59, 194, 118, 198, 60, 10, 69, 254, 59, 73, 58, 52, 189, 248, 13, 248, 188, 165, 219, 186, 188, 236, 211, 125, 60, 13, 9, 19, 189, 97, 184, 62, 61, 98, 138, 46, 61, 101, 125, 14, 189, 34, 13, 24, 61, 24, 150, 221, 187, 71, 128, 22, 61, 195, 99, 100, 61, 191, 86, 31, 189, 27, 242, 49, 61, 212, 28, 54, 189, 52, 88, 167, 60, 1, 102, 249, 60, 65, 53, 89, 59, 228, 162, 52, 60, 207, 14, 16, 61, 156, 65, 228, 60, 119, 51, 22, 189, 167, 19, 250, 188, 55, 230, 80, 189, 228, 47, 101, 61, 153, 58, 32, 188, 198, 135, 116, 188, 159, 53, 47, 61, 251, 118, 74, 189, 118, 132, 111, 189, 53, 61, 81, 188, 31, 154, 236, 60, 18, 67, 137, 187, 11, 139, 255, 60, 33, 88, 21, 189, 117, 156, 84, 59, 223, 253, 205, 59, 123, 137, 211, 188, 121, 134, 147, 188, 247, 54, 70, 61, 19, 211, 25, 188, 207, 143, 172, 188, 169, 21, 33, 189, 33, 242, 7, 189, 6, 246, 42, 188, 95, 10, 209, 60, 220, 126, 98, 60, 226, 31, 15, 188, 80, 132, 18, 60, 233, 66, 117, 60, 55, 183, 15, 61, 238, 67, 29, 188, 47, 180, 51, 189, 103, 186, 10, 188, 199, 168, 78, 189, 60, 231, 156, 60, 61, 253, 112, 61, 16, 221, 241, 60, 235, 235, 42, 189, 108, 202, 48, 187, 228, 243, 29, 185, 113, 37, 205, 60, 199, 159, 20, 189, 147, 165, 86, 60, 208, 27, 68, 60, 208, 60, 103, 61, 212, 115, 239, 188, 18, 114, 31, 61, 104, 255, 108, 188, 165, 204, 197, 188, 131, 222, 106, 60, 166, 122, 22, 188, 131, 97, 32, 61, 133, 115, 142, 189, 3, 150, 91, 60, 231, 196, 97, 189, 246, 240, 160, 188, 2, 254, 144, 189, 163, 190, 161, 188, 17, 45, 84, 61, 172, 37, 132, 184, 125, 40, 132, 189, 60, 24, 52, 187, 208, 227, 78, 60, 150, 93, 24, 189, 29, 34, 61, 61, 58, 193, 119, 186, 138, 229, 92, 188, 232, 61, 5, 187, 68, 15, 72, 188, 206, 127, 61, 189, 175, 252, 18, 189, 42, 44, 181, 188, 63, 212, 37, 189, 243, 70, 118, 188, 7, 110, 48, 189, 199, 226, 162, 188, 124, 121, 170, 188, 238, 182, 140, 189, 186, 142, 14, 61, 74, 202, 164, 60, 173, 83, 91, 188, 11, 154, 213, 60, 126, 207, 149, 60, 92, 252, 21, 61, 157, 149, 54, 61, 216, 16, 91, 188, 17, 227, 104, 189, 144, 107, 89, 61, 202, 196, 24, 189, 216, 154, 0, 189, 233, 3, 53, 188, 107, 24, 93, 189, 75, 243, 36, 189, 29, 133, 22, 60, 2, 100, 94, 189, 33, 51, 0, 188, 37, 144, 217, 60, 149, 226, 70, 59, 50, 176, 188, 59, 180, 238, 33, 61, 177, 255, 220, 60, 203, 18, 146, 60, 219, 3, 189, 59, 27, 46, 40, 61, 110, 98, 166, 189, 76, 92, 10, 189, 169, 61, 239, 60, 90, 211, 10, 189, 250, 176, 57, 189, 51, 126, 217, 188, 238, 97, 119, 188, 167, 5, 168, 188, 211, 150, 52, 189, 129, 126, 6, 189, 82, 130, 19, 61, 254, 157, 63, 189, 225, 250, 103, 189, 37, 136, 9, 61, 75, 169, 245, 188, 70, 202, 31, 189, 196, 181, 168, 60, 254, 220, 85, 189, 66, 117, 89, 61, 70, 20, 55, 189, 13, 57, 13, 189, 244, 171, 78, 189, 57, 193, 180, 60, 46, 86, 192, 60, 130, 107, 63, 189, 61, 202, 139, 59, 19, 39, 247, 185, 165, 203, 174, 60, 122, 186, 215, 60, 94, 78, 57, 60, 147, 228, 92, 188, 175, 112, 230, 188, 8, 98, 98, 59, 120, 29, 123, 60, 54, 37, 40, 60, 30, 28, 208, 60, 181, 247, 7, 189, 67, 242, 196, 188, 68, 252, 143, 187, 221, 202, 34, 189, 228, 206, 235, 188, 24, 71, 74, 188, 248, 182, 110, 60, 51, 232, 253, 187, 198, 112, 141, 184, 71, 243, 137, 188, 118, 131, 128, 60, 94, 67, 222, 188, 207, 243, 51, 189, 236, 15, 21, 60, 135, 251, 87, 189, 213, 229, 252, 187, 29, 239, 31, 189, 71, 172, 59, 187, 183, 1, 45, 61, 36, 92, 154, 189, 18, 134, 18, 188, 232, 57, 221, 188, 249, 184, 44, 59, 29, 96, 54, 189, 36, 246, 246, 60, 115, 203, 12, 188, 140, 129, 160, 60, 108, 76, 65, 61, 85, 173, 249, 59, 216, 71, 52, 61, 103, 115, 189, 188, 24, 155, 139, 60, 170, 6, 198, 60, 13, 119, 134, 189, 101, 48, 82, 189, 37, 93, 239, 188, 108, 10, 198, 188, 115, 102, 1, 188, 53, 180, 40, 187, 152, 163, 211, 188, 5, 76, 199, 59, 247, 251, 150, 188, 178, 120, 82, 188, 156, 74, 236, 187, 104, 115, 193, 188, 223, 142, 77, 187, 91, 207, 176, 60, 1, 165, 222, 58, 142, 67, 210, 60, 48, 15, 239, 186, 160, 222, 163, 185, 12, 231, 65, 61, 77, 76, 224, 187, 52, 138, 137, 60, 152, 42, 215, 186, 100, 7, 236, 58, 16, 146, 207, 188, 1, 93, 117, 189, 172, 168, 231, 60, 2, 247, 255, 60, 164, 32, 227, 59, 144, 46, 134, 58, 44, 196, 247, 59, 236, 52, 223, 188, 123, 105, 151, 60, 235, 164, 64, 61, 229, 168, 232, 188, 61, 127, 155, 60, 187, 111, 145, 188, 19, 8, 229, 188, 36, 225, 165, 59, 130, 133, 188, 187, 83, 176, 115, 186, 173, 45, 170, 60, 202, 141, 225, 60, 40, 246, 62, 188, 2, 45, 183, 186, 124, 252, 65, 61, 45, 203, 51, 61, 245, 231, 169, 60, 159, 28, 66, 189, 255, 189, 232, 57, 1, 55, 231, 60, 123, 82, 233, 188, 255, 223, 186, 60, 88, 139, 124, 189, 225, 124, 30, 189, 70, 179, 165, 60, 56, 233, 77, 189, 189, 130, 12, 61, 73, 214, 241, 60, 26, 120, 123, 189, 38, 236, 77, 60, 8, 26, 25, 61, 153, 214, 238, 188, 192, 89, 243, 186, 225, 69, 101, 61, 30, 156, 39, 59, 43, 33, 188, 60, 190, 96, 6, 61, 146, 95, 106, 188, 208, 65, 205, 60, 166, 48, 38, 188, 120, 20, 25, 61, 100, 234, 254, 188, 247, 45, 9, 189, 222, 39, 130, 188, 145, 79, 140, 61, 97, 87, 83, 188, 25, 55, 194, 59, 184, 27, 172, 60, 242, 66, 75, 189, 55, 26, 236, 188, 50, 8, 95, 188, 209, 168, 86, 189, 99, 115, 38, 189, 248, 106, 54, 60, 177, 28, 59, 188, 18, 140, 176, 187, 159, 88, 143, 189, 84, 240, 8, 188, 133, 222, 121, 189, 251, 27, 254, 187, 246, 217, 255, 188, 79, 116, 154, 189, 13, 205, 100, 188, 57, 201, 241, 188, 68, 197, 120, 60, 221, 155, 123, 189, 206, 184, 137, 188, 15, 54, 6, 61, 112, 70, 138, 189, 114, 187, 164, 188, 181, 199, 87, 189, 232, 28, 27, 189, 28, 226, 162, 189, 35, 186, 139, 189, 211, 122, 7, 189, 103, 138, 205, 188, 220, 75, 41, 189, 131, 241, 21, 189, 14, 130, 143, 189, 89, 232, 52, 189, 130, 34, 111, 189, 107, 252, 254, 60, 221, 132, 160, 188, 74, 108, 32, 188, 60, 72, 120, 189, 62, 53, 40, 60, 212, 74, 90, 189, 44, 89, 156, 188, 54, 133, 255, 187, 51, 239, 152, 188, 182, 26, 15, 188, 239, 85, 34, 188, 203, 106, 76, 189, 52, 71, 85, 189, 120, 18, 208, 188, 5, 197, 146, 189, 189, 81, 112, 189, 140, 135, 41, 60, 55, 210, 17, 61, 155, 34, 253, 188, 146, 230, 41, 59, 44, 166, 123, 188, 127, 155, 88, 59, 100, 36, 144, 187, 209, 157, 211, 60, 120, 43, 135, 189, 65, 231, 160, 60, 142, 41, 65, 58, 32, 60, 25, 187, 94, 194, 149, 60, 126, 201, 177, 189, 161, 0, 103, 60, 107, 191, 43, 189, 206, 112, 132, 188, 66, 251, 131, 187, 189, 187, 30, 189, 79, 70, 62, 188, 46, 234, 141, 189, 67, 123, 2, 189, 244, 121, 55, 61, 186, 236, 9, 189, 90, 153, 5, 61, 156, 178, 13, 61, 82, 148, 53, 186, 75, 49, 8, 59, 23, 203, 171, 60, 170, 179, 244, 188, 159, 21, 74, 60, 33, 185, 143, 188, 219, 173, 227, 58, 50, 223, 93, 61, 152, 65, 164, 60, 152, 220, 254, 188, 69, 145, 69, 189, 0, 33, 4, 188, 9, 45, 83, 61, 64, 207, 206, 60, 240, 177, 247, 187, 155, 178, 235, 60, 201, 225, 5, 61, 101, 174, 135, 188, 21, 6, 137, 189, 250, 116, 152, 186, 125, 103, 254, 188, 162, 16, 200, 60, 174, 93, 248, 60, 142, 25, 39, 189, 98, 127, 186, 60, 32, 220, 45, 61, 192, 39, 82, 60, 177, 128, 172, 60, 73, 139, 36, 189, 254, 69, 44, 61, 43, 91, 150, 187, 241, 202, 193, 188, 196, 81, 19, 60, 51, 89, 4, 189, 78, 228, 32, 61, 116, 50, 155, 60, 1, 215, 202, 60, 86, 129, 50, 61, 39, 129, 13, 189, 55, 244, 241, 188, 48, 39, 254, 187, 9, 159, 217, 188, 23, 75, 213, 188, 22, 234, 205, 188, 155, 182, 168, 188, 45, 171, 105, 189, 22, 254, 157, 61, 119, 28, 176, 188, 181, 10, 178, 187, 249, 3, 242, 188, 114, 126, 235, 188, 247, 67, 67, 59, 196, 219, 190, 188, 74, 154, 18, 61, 169, 186, 33, 189, 217, 232, 152, 57, 84, 61, 230, 60, 161, 218, 27, 189, 51, 44, 88, 61, 23, 204, 147, 188, 205, 148, 57, 188, 82, 226, 36, 189, 228, 103, 4, 61, 164, 214, 227, 188, 219, 89, 193, 60, 104, 151, 70, 189, 3, 228, 151, 189, 36, 254, 211, 188, 64, 191, 101, 189, 152, 24, 252, 60, 19, 249, 66, 187, 186, 115, 194, 60, 202, 187, 18, 189, 104, 103, 59, 189, 29, 177, 107, 189, 127, 189, 192, 188, 161, 173, 79, 61, 38, 151, 230, 60, 245, 157, 37, 189, 8, 111, 79, 189, 65, 6, 172, 188, 210, 158, 53, 188, 166, 115, 63, 61, 25, 243, 166, 59, 182, 106, 54, 61, 78, 72, 5, 186, 54, 183, 60, 59, 164, 198, 214, 188, 75, 101, 35, 189, 148, 37, 127, 60, 31, 98, 144, 60, 117, 48, 55, 189, 231, 136, 165, 60, 139, 196, 132, 188, 240, 47, 18, 189, 97, 215, 84, 189, 19, 116, 241, 60, 112, 140, 253, 60, 69, 56, 121, 189, 170, 181, 50, 188, 111, 118, 147, 60, 228, 2, 115, 189, 83, 54, 176, 59, 52, 74, 179, 59, 241, 71, 153, 188, 118, 83, 74, 189, 62, 175, 111, 189, 58, 144, 213, 188, 193, 29, 205, 188, 51, 232, 140, 189, 175, 27, 186, 188, 86, 14, 47, 189, 79, 95, 0, 189, 19, 54, 131, 188, 88, 80, 30, 187, 25, 138, 66, 189, 79, 184, 1, 189, 124, 82, 9, 60, 171, 18, 187, 187, 170, 249, 194, 58, 246, 226, 222, 188, 247, 180, 22, 61, 31, 251, 176, 188, 55, 113, 136, 60, 204, 37, 68, 59, 157, 88, 47, 60, 18, 187, 165, 186, 139, 168, 41, 189, 127, 130, 215, 189, 55, 6, 176, 60, 81, 126, 33, 189, 52, 93, 126, 188, 239, 204, 200, 188, 106, 209, 231, 60, 188, 137, 134, 189, 204, 191, 12, 61, 249, 177, 224, 188, 155, 42, 136, 186, 5, 128, 22, 189, 92, 19, 35, 189, 62, 207, 91, 60, 145, 32, 110, 189, 31, 179, 229, 60, 245, 106, 21, 189, 211, 206, 5, 189, 218, 26, 216, 60, 108, 68, 30, 189, 5, 29, 89, 189, 83, 120, 211, 186, 96, 193, 98, 60, 219, 9, 143, 189, 162, 172, 116, 189, 218, 191, 176, 60, 25, 110, 229, 188, 133, 228, 241, 59, 138, 186, 72, 188, 95, 38, 223, 188, 69, 204, 18, 189, 12, 150, 62, 60, 102, 156, 252, 187, 74, 103, 106, 189, 133, 180, 99, 189, 108, 72, 191, 59, 136, 109, 139, 58, 73, 32, 86, 188, 74, 179, 160, 189, 155, 121, 71, 61, 12, 169, 238, 188, 248, 172, 102, 60, 66, 246, 74, 188, 39, 0, 29, 189, 235, 34, 186, 60, 54, 106, 147, 60, 52, 254, 195, 188, 28, 92, 101, 60, 9, 164, 42, 60, 208, 106, 93, 61, 149, 57, 108, 61, 112, 31, 185, 55, 200, 209, 188, 187, 161, 75, 5, 60, 17, 168, 38, 189, 251, 146, 237, 60, 113, 99, 17, 188, 151, 50, 158, 60, 19, 110, 155, 60, 108, 136, 126, 189, 209, 86, 139, 189, 199, 8, 104, 60, 239, 120, 253, 59, 93, 54, 201, 59, 158, 129, 167, 60, 154, 117, 5, 59, 8, 26, 17, 189, 116, 105, 167, 60, 124, 66, 119, 60, 226, 188, 57, 189, 152, 241, 25, 189, 83, 5, 80, 189, 44, 67, 47, 61, 70, 50, 235, 60, 27, 47, 117, 188, 162, 148, 4, 59, 45, 84, 73, 61, 125, 190, 223, 188, 208, 216, 67, 189, 238, 6, 138, 60, 114, 35, 226, 60, 177, 63, 19, 61, 12, 104, 252, 59, 57, 50, 37, 61, 33, 57, 190, 187, 6, 45, 77, 60, 179, 203, 113, 60, 180, 154, 161, 188, 212, 178, 129, 60, 162, 253, 53, 189, 36, 20, 163, 60, 217, 200, 16, 189, 28, 75, 10, 61, 177, 51, 89, 189, 76, 111, 233, 60, 5, 124, 131, 60, 133, 45, 79, 189, 98, 249, 119, 189, 16, 237, 64, 60, 134, 81, 2, 61, 186, 111, 12, 58, 132, 74, 24, 188, 197, 3, 125, 61, 53, 194, 89, 59, 9, 36, 50, 60, 56, 144, 255, 60, 5, 245, 248, 60, 162, 246, 176, 188, 90, 194, 140, 188, 114, 40, 66, 61, 24, 187, 124, 189, 164, 229, 19, 189, 204, 104, 20, 189, 217, 156, 0, 61, 178, 144, 206, 60, 116, 238, 106, 60, 149, 38, 45, 188, 148, 219, 222, 60, 118, 213, 54, 188, 93, 106, 5, 60, 205, 220, 55, 189, 82, 120, 169, 188, 98, 35, 161, 58, 179, 153, 57, 189, 249, 237, 180, 188, 127, 206, 74, 59, 110, 192, 43, 188, 197, 128, 61, 61, 172, 105, 215, 59, 33, 209, 169, 189, 124, 66, 155, 188, 18, 65, 153, 188, 88, 4, 58, 189, 22, 16, 128, 188, 75, 85, 232, 188, 214, 253, 186, 188, 143, 132, 138, 60, 247, 17, 71, 189, 3, 177, 224, 187, 226, 4, 133, 60, 84, 234, 170, 60, 177, 108, 64, 60, 48, 54, 118, 188, 238, 21, 218, 60, 108, 60, 127, 188, 11, 99, 48, 188, 57, 130, 41, 61, 119, 15, 110, 61, 182, 168, 104, 189, 243, 81, 183, 188, 131, 212, 96, 61, 72, 255, 19, 189, 63, 74, 144, 187, 153, 199, 28, 61, 254, 253, 164, 186, 1, 103, 72, 188, 157, 57, 119, 189, 163, 44, 143, 60, 19, 200, 0, 61, 211, 81, 157, 188, 239, 229, 67, 189, 203, 212, 47, 187, 198, 133, 158, 189, 96, 28, 37, 187, 149, 221, 115, 188, 209, 93, 1, 61, 219, 175, 49, 189, 51, 48, 216, 188, 137, 149, 75, 60, 6, 31, 74, 60, 99, 162, 128, 189, 77, 143, 88, 60, 215, 236, 22, 61, 172, 70, 107, 189, 120, 89, 39, 189, 129, 120, 195, 189, 175, 198, 117, 188, 43, 163, 208, 60, 240, 84, 132, 60, 196, 42, 191, 189, 211, 249, 14, 189, 6, 225, 153, 187, 235, 170, 169, 188, 246, 49, 74, 189, 229, 6, 242, 60, 36, 147, 73, 189, 167, 229, 8, 61, 128, 99, 212, 188, 145, 191, 100, 189, 201, 250, 99, 188, 62, 180, 75, 188, 46, 216, 179, 188, 246, 147, 229, 188, 179, 224, 213, 188, 30, 171, 0, 60, 119, 125, 153, 189, 16, 163, 5, 189, 207, 43, 227, 188, 87, 100, 155, 189, 140, 226, 4, 189, 218, 158, 238, 188, 190, 30, 222, 188, 211, 39, 243, 59, 191, 243, 219, 188, 83, 165, 191, 60, 41, 216, 11, 189, 16, 2, 171, 189, 16, 36, 150, 189, 79, 51, 104, 189, 19, 37, 14, 61, 45, 153, 146, 188, 252, 120, 133, 189, 89, 207, 81, 189, 204, 198, 62, 189, 37, 193, 23, 189, 226, 88, 255, 188, 132, 213, 243, 188, 169, 227, 221, 59, 198, 114, 31, 187, 77, 206, 15, 60, 242, 67, 34, 189, 24, 7, 20, 189, 240, 125, 40, 189, 127, 199, 59, 189, 5, 16, 255, 188, 69, 142, 61, 59, 199, 126, 45, 189, 36, 182, 128, 188, 196, 226, 73, 189, 245, 27, 62, 189, 243, 190, 132, 189, 106, 90, 4, 189, 72, 56, 244, 60, 232, 103, 94, 189, 2, 252, 140, 189, 136, 226, 201, 186, 126, 170, 147, 61, 107, 83, 73, 189, 176, 50, 38, 60, 238, 117, 90, 189, 79, 218, 176, 58, 151, 123, 35, 188, 85, 235, 174, 61, 123, 182, 211, 188, 222, 144, 115, 188, 211, 186, 14, 60, 129, 253, 56, 189, 241, 167, 36, 188, 123, 43, 138, 189, 9, 74, 183, 188, 233, 167, 30, 61, 138, 100, 62, 188, 109, 208, 121, 189, 206, 28, 105, 61, 249, 152, 50, 187, 177, 181, 206, 186, 81, 33, 172, 60, 16, 153, 89, 57, 175, 108, 239, 59, 171, 12, 54, 189, 196, 122, 124, 189, 20, 163, 20, 61, 2, 182, 177, 60, 85, 90, 226, 188, 39, 77, 49, 60, 162, 225, 9, 189, 227, 90, 175, 188, 205, 213, 153, 188, 113, 149, 145, 187, 47, 190, 160, 188, 111, 37, 124, 59, 194, 72, 36, 189, 180, 221, 239, 60, 242, 66, 239, 60, 17, 78, 79, 189, 4, 53, 205, 188, 167, 74, 54, 61, 162, 204, 47, 186, 28, 196, 134, 189, 215, 45, 14, 61, 99, 74, 110, 60, 39, 254, 9, 60, 30, 136, 135, 59, 217, 83, 44, 188, 45, 173, 156, 60, 17, 95, 70, 189, 127, 108, 65, 61, 234, 248, 198, 60, 177, 236, 5, 61, 25, 66, 196, 188, 204, 120, 14, 189, 102, 98, 231, 59, 62, 181, 245, 188, 223, 148, 132, 189, 239, 145, 10, 61, 162, 1, 32, 187, 185, 231, 31, 189, 200, 226, 29, 60, 24, 111, 97, 188, 94, 57, 30, 189, 153, 64, 85, 60, 133, 222, 229, 188, 19, 204, 174, 188, 154, 157, 217, 60, 223, 148, 89, 60, 0, 207, 28, 189, 171, 3, 202, 60, 81, 58, 224, 188, 36, 221, 202, 59, 252, 121, 26, 189, 130, 209, 152, 60, 149, 26, 133, 60, 112, 171, 190, 187, 150, 109, 101, 189, 80, 251, 54, 61, 45, 121, 160, 188, 179, 6, 69, 188, 9, 96, 188, 58, 37, 2, 4, 61, 87, 95, 253, 188, 0, 27, 20, 60, 33, 199, 36, 60, 124, 223, 212, 188, 122, 106, 48, 189, 155, 219, 210, 188, 254, 53, 63, 189, 34, 51, 136, 188, 245, 132, 125, 188, 104, 0, 102, 61, 108, 111, 33, 61, 166, 29, 175, 188, 147, 55, 52, 188, 204, 53, 98, 189, 133, 106, 150, 188, 35, 14, 119, 189, 57, 124, 161, 60, 176, 80, 201, 188, 50, 180, 96, 60, 53, 189, 221, 188, 42, 95, 227, 60, 39, 29, 252, 60, 236, 140, 145, 189, 69, 50, 233, 59, 60, 74, 53, 188, 107, 86, 243, 188, 138, 248, 92, 188, 219, 77, 160, 187, 54, 205, 149, 59, 15, 166, 138, 188, 46, 124, 203, 188, 202, 188, 158, 188, 124, 197, 41, 189, 91, 58, 251, 60, 137, 239, 234, 59, 75, 55, 178, 187, 39, 97, 44, 189, 78, 123, 19, 59, 148, 86, 121, 60, 145, 97, 164, 188, 185, 218, 222, 187, 110, 32, 126, 189, 167, 86, 53, 189, 103, 70, 89, 189, 169, 209, 199, 60, 28, 159, 117, 61, 150, 243, 22, 60, 108, 67, 42, 189, 48, 156, 198, 189, 17, 129, 53, 61, 232, 115, 231, 187, 59, 206, 73, 188, 153, 152, 110, 189, 224, 115, 16, 189, 78, 167, 244, 60, 205, 255, 25, 60, 11, 152, 177, 188, 162, 59, 184, 188, 207, 253, 122, 189, 182, 136, 106, 60, 159, 66, 145, 60, 227, 117, 132, 188, 64, 105, 103, 61, 46, 124, 159, 189, 30, 50, 152, 60, 238, 233, 152, 188, 138, 13, 117, 188, 120, 161, 67, 61, 86, 63, 184, 189, 22, 211, 44, 61, 249, 250, 49, 59, 226, 68, 199, 187, 185, 101, 66, 189, 244, 242, 103, 61, 230, 110, 82, 189, 52, 233, 213, 60, 109, 19, 17, 189, 197, 225, 177, 60, 191, 76, 13, 189, 59, 147, 54, 59, 48, 21, 5, 189, 215, 165, 115, 189, 45, 29, 14, 189, 201, 74, 233, 59, 106, 229, 253, 187, 107, 112, 253, 188, 124, 111, 99, 188, 211, 72, 115, 189, 119, 2, 119, 189, 161, 181, 90, 60, 2, 80, 39, 61, 5, 125, 163, 188, 102, 214, 224, 60, 167, 192, 177, 188, 203, 170, 35, 188, 178, 3, 163, 186, 249, 53, 20, 189, 92, 94, 198, 60, 190, 178, 229, 60, 36, 100, 182, 189, 72, 68, 179, 188, 141, 52, 62, 60, 181, 160, 39, 60, 94, 175, 15, 189, 177, 184, 198, 188, 255, 176, 8, 61, 180, 105, 10, 189, 171, 232, 213, 60, 252, 248, 202, 60, 129, 194, 156, 188, 154, 30, 141, 60, 88, 3, 108, 189, 219, 93, 54, 60, 182, 123, 23, 61, 219, 211, 16, 61, 85, 217, 117, 60, 175, 35, 18, 189, 151, 255, 243, 60, 134, 214, 121, 188, 229, 241, 181, 188, 63, 232, 244, 188, 58, 182, 149, 189, 14, 24, 69, 61, 91, 219, 92, 186, 193, 28, 105, 189, 15, 31, 128, 189, 116, 247, 24, 61, 28, 170, 80, 188, 1, 192, 32, 61, 107, 134, 213, 60, 253, 51, 24, 189, 214, 134, 224, 188, 136, 131, 41, 189, 0, 101, 213, 60, 139, 4, 101, 189, 204, 44, 38, 189, 51, 37, 249, 59, 114, 23, 201, 59, 40, 169, 187, 60, 128, 145, 240, 60, 190, 27, 39, 189, 133, 236, 43, 61, 244, 75, 211, 59, 136, 23, 67, 60, 26, 164, 33, 61, 128, 73, 18, 61, 62, 114, 59, 188, 20, 13, 97, 58, 153, 41, 60, 61, 180, 116, 115, 188, 175, 162, 248, 187, 58, 253, 132, 188, 197, 52, 245, 58, 110, 48, 47, 61, 141, 103, 213, 188, 4, 77, 156, 60, 160, 66, 30, 60, 84, 170, 90, 60, 157, 2, 110, 57, 205, 44, 151, 188, 241, 170, 1, 61, 129, 187, 66, 61, 203, 84, 29, 61, 191, 46, 44, 61, 141, 53, 126, 188, 197, 54, 71, 61, 139, 114, 78, 60, 83, 138, 207, 188, 243, 176, 44, 189, 0, 27, 16, 54, 245, 148, 52, 188, 59, 143, 173, 59, 55, 194, 176, 60, 135, 39, 168, 186, 177, 161, 43, 61, 128, 123, 3, 189, 137, 35, 131, 60, 202, 243, 0, 60, 70, 49, 169, 188, 117, 103, 34, 60, 71, 130, 93, 189, 72, 217, 30, 189, 75, 245, 49, 188, 159, 25, 6, 189, 247, 94, 99, 188, 30, 152, 179, 188, 84, 224, 21, 189, 208, 187, 22, 189, 188, 5, 161, 188, 157, 33, 97, 60, 71, 125, 87, 61, 14, 83, 158, 186, 38, 66, 199, 60, 49, 252, 142, 188, 0, 245, 3, 189, 164, 179, 139, 189, 221, 233, 26, 186, 187, 127, 68, 189, 29, 248, 162, 189, 49, 12, 145, 59, 109, 209, 160, 188, 211, 22, 59, 61, 191, 55, 107, 60, 58, 158, 160, 60, 192, 184, 41, 189, 14, 36, 6, 61, 204, 9, 54, 189, 116, 201, 246, 60, 247, 239, 2, 61, 189, 75, 206, 188, 142, 141, 171, 60, 30, 98, 21, 60, 189, 155, 253, 60, 242, 37, 19, 189, 44, 204, 154, 60, 206, 53, 33, 189, 233, 112, 43, 189, 113, 171, 214, 60, 227, 101, 64, 61, 116, 18, 52, 61, 233, 71, 36, 189, 142, 39, 201, 188, 194, 219, 183, 58, 204, 35, 8, 61, 192, 44, 224, 188, 120, 225, 68, 189, 175, 143, 138, 188, 127, 146, 25, 61, 204, 4, 140, 60, 132, 188, 251, 59, 8, 120, 142, 60, 20, 209, 142, 60, 121, 30, 137, 188, 137, 198, 83, 188, 240, 61, 170, 187, 209, 134, 86, 189, 165, 246, 174, 188, 75, 25, 142, 188, 230, 48, 85, 60, 28, 234, 227, 59, 232, 172, 60, 189, 143, 189, 65, 188, 34, 163, 140, 188, 124, 131, 65, 188, 158, 80, 111, 189, 160, 78, 139, 189, 88, 248, 110, 189, 193, 98, 42, 189, 236, 139, 37, 189, 227, 76, 56, 189, 234, 188, 75, 60, 140, 17, 196, 188, 81, 226, 161, 188, 206, 183, 143, 188, 166, 39, 133, 61, 140, 114, 56, 188, 130, 47, 171, 187, 244, 238, 191, 60, 121, 132, 29, 60, 90, 245, 17, 61, 113, 169, 228, 187, 252, 152, 252, 187, 74, 176, 9, 188, 94, 35, 233, 60, 137, 59, 124, 188, 160, 94, 118, 60, 168, 132, 186, 189, 180, 217, 2, 61, 163, 181, 121, 189, 173, 197, 3, 189, 4, 131, 1, 60, 150, 51, 157, 189, 207, 135, 163, 188, 194, 122, 32, 60, 18, 1, 132, 61, 32, 93, 42, 61, 134, 56, 251, 188, 133, 229, 5, 60, 185, 193, 59, 189, 45, 214, 220, 60, 171, 23, 154, 60, 42, 118, 247, 188, 216, 107, 27, 60, 125, 39, 89, 188, 182, 193, 56, 60, 140, 164, 193, 189, 50, 164, 171, 60, 188, 156, 63, 61, 9, 201, 61, 189, 126, 168, 172, 188, 28, 58, 206, 188, 44, 209, 34, 60, 136, 74, 194, 188, 240, 34, 38, 61, 162, 79, 36, 61, 29, 7, 150, 60, 222, 162, 15, 188, 194, 125, 171, 188, 156, 97, 6, 188, 8, 252, 1, 189, 251, 170, 160, 60, 253, 91, 32, 188, 74, 63, 175, 188, 182, 90, 20, 189, 24, 30, 36, 189, 94, 181, 78, 61, 134, 174, 97, 188, 153, 72, 26, 61, 195, 141, 37, 189, 196, 65, 121, 61, 121, 108, 54, 61, 177, 249, 255, 59, 95, 241, 128, 189, 139, 67, 133, 189, 7, 17, 105, 188, 171, 241, 156, 60, 61, 56, 52, 189, 39, 22, 79, 189, 4, 82, 241, 60, 171, 166, 139, 61, 121, 250, 183, 60, 125, 52, 220, 60, 173, 33, 252, 188, 108, 240, 96, 189, 154, 153, 7, 188, 42, 165, 99, 61, 56, 83, 76, 61, 117, 128, 247, 188, 203, 253, 128, 187, 64, 184, 159, 60, 82, 59, 50, 61, 253, 24, 214, 59, 54, 81, 242, 59, 54, 6, 226, 60, 114, 5, 2, 60, 42, 191, 175, 60, 47, 16, 7, 60, 67, 169, 238, 59, 183, 168, 20, 189, 201, 48, 208, 59, 200, 250, 233, 188, 116, 22, 217, 59, 228, 104, 13, 61, 56, 219, 229, 60, 136, 111, 39, 60, 205, 134, 145, 188, 201, 249, 18, 189, 198, 26, 94, 188, 219, 137, 72, 59, 148, 83, 206, 186, 33, 95, 2, 61, 249, 116, 2, 189, 1, 12, 44, 59, 202, 164, 238, 188, 78, 75, 31, 189, 160, 73, 108, 61, 189, 59, 234, 60, 169, 217, 9, 189, 75, 28, 107, 189, 68, 48, 36, 61, 159, 208, 53, 60, 76, 122, 70, 60, 110, 6, 0, 189, 213, 254, 187, 60, 167, 45, 210, 188, 85, 160, 32, 188, 116, 38, 209, 188, 178, 30, 30, 61, 103, 141, 132, 60, 126, 133, 245, 188, 237, 15, 13, 189, 142, 14, 50, 61, 90, 31, 100, 187, 3, 1, 236, 188, 12, 195, 19, 61, 139, 204, 165, 60, 40, 91, 34, 189, 183, 254, 202, 59, 121, 231, 44, 188, 108, 77, 117, 61, 213, 148, 166, 61, 18, 156, 248, 187, 27, 54, 81, 189, 177, 88, 52, 60, 114, 15, 138, 60, 165, 189, 42, 61, 55, 204, 123, 189, 69, 10, 130, 60, 20, 36, 246, 188, 195, 255, 68, 189, 254, 4, 52, 60, 170, 254, 2, 61, 148, 13, 238, 188, 11, 145, 32, 61, 22, 174, 104, 189, 144, 167, 241, 187, 220, 78, 27, 61, 121, 143, 4, 61, 169, 232, 238, 188, 242, 210, 235, 188, 185, 202, 121, 60, 217, 176, 16, 189, 231, 171, 150, 187, 137, 161, 76, 61, 33, 69, 115, 61, 58, 241, 27, 61, 13, 97, 224, 60, 243, 243, 240, 188, 56, 206, 32, 61, 140, 162, 29, 61, 119, 148, 62, 61, 134, 252, 180, 187, 60, 128, 173, 188, 182, 235, 199, 188, 97, 115, 242, 59, 191, 221, 40, 60, 187, 51, 4, 61, 35, 163, 140, 60, 156, 127, 111, 189, 142, 138, 19, 189, 53, 185, 146, 60, 0, 51, 249, 53, 37, 36, 222, 60, 153, 190, 94, 60, 34, 239, 138, 187, 235, 61, 43, 189, 40, 149, 16, 188, 154, 236, 213, 186, 239, 0, 218, 60, 11, 134, 108, 60, 114, 153, 73, 185, 31, 25, 137, 188, 30, 163, 0, 189, 55, 197, 66, 189, 7, 140, 26, 61, 21, 111, 119, 61, 216, 51, 236, 60, 172, 82, 178, 60, 122, 22, 189, 188, 174, 38, 60, 61, 147, 121, 160, 60, 30, 40, 74, 189, 124, 59, 44, 60, 8, 182, 227, 60, 67, 25, 228, 60, 192, 183, 166, 188, 141, 85, 36, 61, 17, 84, 24, 187, 13, 149, 105, 61, 113, 93, 224, 59, 172, 44, 135, 188, 103, 7, 158, 188, 103, 30, 248, 59, 69, 125, 50, 189, 16, 237, 180, 60, 146, 176, 1, 189, 14, 36, 169, 188, 35, 219, 187, 188, 15, 202, 35, 189, 254, 87, 251, 59, 104, 22, 46, 61, 238, 151, 188, 188, 138, 84, 39, 61, 226, 230, 24, 189, 146, 26, 82, 188, 62, 154, 240, 188, 192, 122, 32, 61, 110, 75, 1, 61, 201, 30, 130, 189, 6, 100, 15, 189, 200, 89, 72, 61, 136, 176, 78, 188, 188, 117, 205, 60, 234, 194, 114, 189, 79, 182, 36, 59, 165, 32, 227, 188, 127, 214, 46, 61, 237, 49, 243, 188, 92, 229, 219, 60, 200, 164, 128, 59, 158, 217, 59, 60, 76, 91, 44, 189, 31, 145, 52, 189, 94, 177, 177, 60, 75, 249, 110, 189, 47, 139, 216, 60, 239, 239, 172, 188, 35, 252, 128, 60, 225, 202, 13, 189, 24, 178, 236, 60, 134, 135, 9, 61, 49, 170, 127, 60, 204, 97, 157, 60, 178, 147, 3, 61, 95, 158, 14, 60, 156, 249, 41, 188, 167, 97, 174, 188, 89, 151, 106, 61, 6, 1, 12, 189, 245, 196, 85, 60, 119, 53, 40, 189, 235, 56, 60, 61, 0, 135, 104, 61, 145, 86, 164, 60, 223, 46, 89, 60, 15, 63, 34, 188, 71, 86, 104, 61, 122, 215, 99, 60, 163, 133, 38, 59, 74, 207, 146, 189, 178, 1, 76, 61, 9, 180, 200, 188, 97, 83, 28, 186, 164, 242, 164, 188, 192, 223, 4, 188, 126, 216, 52, 61, 216, 17, 227, 59, 87, 215, 223, 188, 48, 136, 72, 189, 238, 100, 234, 187, 253, 180, 71, 61, 81, 137, 11, 189, 136, 29, 107, 189, 198, 199, 34, 189, 66, 149, 128, 188, 225, 48, 167, 60, 191, 14, 44, 61, 55, 241, 43, 61, 237, 89, 134, 60, 149, 61, 250, 187, 188, 197, 21, 188, 80, 209, 184, 188, 71, 22, 183, 188, 4, 103, 149, 188, 96, 213, 243, 60, 96, 169, 13, 189, 80, 185, 21, 189, 117, 42, 90, 61, 81, 18, 123, 187, 8, 42, 190, 186, 47, 18, 178, 60, 91, 37, 99, 60, 130, 138, 2, 189, 252, 82, 26, 188, 127, 137, 156, 188, 238, 62, 193, 60, 89, 249, 31, 188, 252, 174, 1, 189, 120, 123, 238, 60, 255, 236, 53, 188, 145, 96, 73, 61, 241, 156, 242, 188, 65, 15, 234, 188, 79, 112, 34, 60, 174, 73, 35, 61, 152, 91, 155, 60, 83, 158, 43, 189, 224, 76, 206, 60, 255, 174, 4, 61, 111, 120, 95, 61, 173, 16, 171, 60, 68, 55, 253, 188, 247, 84, 29, 189, 92, 135, 213, 59, 120, 223, 39, 61, 117, 28, 23, 188, 95, 121, 248, 188, 0, 205, 244, 60, 229, 219, 240, 58, 120, 132, 74, 60, 2, 26, 10, 61, 120, 217, 189, 188, 20, 105, 16, 61, 23, 180, 217, 188, 88, 221, 89, 188, 191, 254, 86, 188, 72, 214, 91, 189, 111, 172, 118, 60, 94, 246, 15, 189, 59, 184, 36, 189, 210, 191, 0, 188, 229, 176, 20, 60, 207, 36, 185, 189, 19, 110, 44, 61, 137, 78, 19, 188, 131, 227, 58, 61, 34, 151, 32, 188, 116, 228, 1, 189, 69, 180, 112, 61, 65, 29, 86, 189, 17, 144, 255, 60, 117, 173, 33, 189, 119, 183, 45, 60, 29, 117, 231, 60, 105, 107, 9, 61, 86, 199, 255, 188, 180, 71, 197, 60, 244, 89, 87, 189, 67, 205, 215, 188, 236, 197, 66, 61, 139, 154, 193, 60, 72, 107, 146, 188, 124, 26, 145, 188, 207, 193, 137, 58, 152, 255, 191, 187, 215, 129, 252, 188, 55, 244, 147, 187, 214, 145, 152, 59, 0, 214, 16, 188, 17, 7, 248, 188, 182, 153, 161, 189, 32, 247, 16, 189, 57, 229, 97, 188, 45, 150, 145, 59, 65, 45, 43, 189, 226, 220, 208, 60, 197, 138, 9, 188, 24, 215, 101, 60, 71, 96, 20, 189, 112, 217, 16, 60, 243, 150, 56, 60, 219, 102, 18, 61, 217, 84, 236, 188, 175, 247, 76, 59, 145, 28, 161, 189, 113, 153, 137, 60, 57, 95, 66, 60, 80, 136, 124, 60, 1, 43, 24, 189, 108, 235, 4, 61, 60, 5, 16, 61, 80, 17, 154, 188, 172, 73, 219, 188, 24, 143, 178, 188, 110, 240, 201, 188, 77, 157, 17, 61, 154, 41, 11, 189, 194, 53, 55, 61, 77, 139, 237, 60, 24, 235, 220, 188, 121, 94, 177, 60, 191, 188, 91, 188, 41, 8, 230, 60, 16, 205, 40, 60, 239, 226, 136, 60, 64, 106, 54, 189, 25, 246, 193, 59, 39, 77, 128, 189, 210, 108, 39, 189, 251, 31, 125, 188, 1, 50, 216, 188, 136, 255, 54, 189, 251, 144, 1, 61, 226, 44, 86, 188, 50, 63, 236, 188, 193, 252, 177, 60, 123, 142, 17, 58, 241, 246, 122, 189, 54, 183, 230, 60, 228, 25, 107, 61, 73, 110, 139, 186, 46, 47, 46, 60, 67, 31, 242, 60, 76, 64, 6, 189, 152, 20, 134, 187, 91, 59, 16, 61, 125, 149, 217, 58, 222, 49, 248, 59, 47, 153, 23, 61, 143, 67, 42, 188, 116, 98, 23, 189, 71, 80, 112, 187, 170, 10, 39, 59, 117, 171, 128, 189, 208, 176, 217, 188, 129, 150, 50, 189, 103, 172, 140, 60, 105, 109, 127, 188, 242, 162, 112, 61, 235, 210, 54, 61, 174, 91, 196, 188, 159, 125, 39, 61, 119, 30, 25, 60, 187, 20, 238, 188, 163, 132, 18, 189, 40, 82, 128, 188, 214, 129, 25, 189, 12, 93, 210, 60, 11, 196, 201, 60, 27, 168, 244, 58, 23, 133, 35, 61, 211, 249, 142, 61, 9, 145, 72, 61, 203, 32, 252, 60, 4, 127, 20, 56, 222, 168, 119, 188, 65, 101, 173, 188, 208, 204, 185, 188, 178, 150, 39, 60, 164, 221, 148, 60, 44, 240, 183, 60, 24, 225, 150, 189, 142, 12, 182, 188, 197, 79, 70, 61, 33, 146, 142, 188, 231, 3, 108, 188, 8, 15, 7, 188, 107, 130, 103, 60, 220, 101, 53, 61, 203, 174, 180, 188, 128, 80, 21, 60, 253, 198, 241, 188, 42, 138, 62, 189, 133, 46, 89, 61, 24, 224, 67, 189, 223, 177, 178, 60, 93, 102, 2, 189, 101, 182, 25, 189, 4, 190, 142, 60, 6, 86, 132, 59, 83, 28, 47, 60, 176, 26, 67, 189, 193, 203, 134, 189, 136, 253, 22, 189, 68, 248, 138, 188, 246, 80, 203, 188, 171, 139, 88, 189, 166, 3, 35, 189, 195, 134, 59, 60, 162, 196, 230, 60, 46, 45, 18, 188, 103, 95, 42, 189, 29, 120, 51, 188, 237, 134, 50, 59, 171, 15, 63, 188, 152, 199, 56, 61, 171, 235, 69, 189, 171, 104, 138, 60, 215, 85, 173, 188, 116, 211, 106, 189, 73, 58, 31, 189, 62, 180, 34, 61, 97, 109, 157, 188, 31, 29, 1, 189, 126, 49, 47, 58, 195, 77, 8, 61, 242, 56, 122, 60, 159, 14, 123, 188, 40, 93, 31, 189, 31, 19, 215, 59, 197, 129, 1, 189, 7, 242, 31, 189, 234, 145, 14, 188, 6, 238, 142, 59, 142, 80, 26, 61, 130, 199, 238, 188, 218, 35, 19, 188, 32, 33, 176, 188, 42, 194, 62, 189, 113, 193, 30, 189, 86, 17, 23, 61, 133, 185, 17, 61, 24, 156, 173, 59, 165, 65, 142, 188, 15, 53, 36, 61, 201, 39, 77, 189, 73, 45, 4, 188, 249, 70, 102, 188, 77, 85, 212, 60, 70, 234, 191, 60, 132, 230, 31, 61, 222, 63, 128, 189, 144, 117, 220, 188, 196, 189, 122, 189, 125, 109, 1, 189, 90, 250, 148, 60, 134, 230, 1, 189, 203, 115, 21, 189, 230, 93, 34, 60, 70, 47, 180, 60, 169, 86, 165, 60, 49, 188, 27, 61, 230, 17, 195, 60, 138, 183, 40, 60, 243, 28, 146, 186, 137, 217, 9, 61, 171, 126, 198, 188, 198, 70, 201, 60, 101, 143, 138, 61, 203, 101, 156, 188, 209, 4, 31, 60, 87, 246, 235, 60, 66, 113, 16, 189, 11, 208, 71, 59, 1, 113, 132, 60, 33, 242, 193, 59, 236, 178, 254, 60, 83, 2, 6, 60, 254, 252, 182, 187, 90, 220, 157, 61, 197, 237, 171, 188, 32, 248, 7, 189, 81, 183, 18, 61, 60, 156, 25, 189, 119, 142, 64, 189, 104, 206, 55, 186, 193, 86, 188, 60, 163, 46, 24, 188, 170, 24, 46, 189, 201, 254, 230, 188, 20, 238, 19, 61, 96, 241, 118, 60, 26, 68, 116, 59, 93, 6, 45, 61, 38, 6, 9, 189, 154, 184, 6, 189, 2, 122, 7, 61, 169, 23, 253, 60, 165, 248, 42, 61, 235, 126, 222, 59, 95, 221, 137, 189, 188, 48, 216, 187, 241, 162, 60, 61, 100, 3, 223, 59, 194, 205, 20, 61, 240, 87, 152, 60, 54, 68, 106, 60, 242, 161, 34, 61, 76, 242, 51, 189, 250, 3, 73, 61, 156, 56, 176, 60, 186, 96, 44, 189, 134, 231, 224, 60, 202, 245, 189, 60, 193, 237, 174, 60, 203, 14, 31, 189, 165, 186, 156, 187, 224, 169, 248, 186, 237, 41, 102, 188, 32, 9, 81, 61, 241, 232, 44, 189, 176, 156, 138, 188, 74, 196, 105, 58, 230, 153, 0, 187, 129, 23, 97, 189, 112, 159, 250, 188, 99, 115, 31, 189, 160, 159, 9, 189, 176, 219, 152, 189, 249, 72, 9, 189, 77, 164, 84, 188, 145, 40, 50, 189, 29, 81, 56, 61, 150, 170, 67, 189, 193, 15, 201, 60, 199, 149, 1, 61, 232, 110, 231, 188, 25, 179, 176, 60, 1, 101, 22, 189, 184, 3, 46, 187, 98, 198, 67, 188, 66, 151, 217, 188, 96, 211, 32, 61, 242, 43, 6, 188, 110, 204, 247, 188, 30, 155, 86, 57, 158, 64, 45, 61, 119, 237, 17, 189, 176, 88, 66, 188, 219, 17, 128, 59, 34, 154, 82, 58, 20, 10, 5, 60, 206, 147, 187, 60, 56, 99, 46, 189, 236, 171, 37, 189, 121, 76, 233, 188, 183, 129, 184, 186, 6, 244, 90, 61, 173, 249, 93, 189, 27, 233, 4, 61, 234, 183, 92, 60, 41, 103, 22, 61, 222, 248, 102, 60, 78, 165, 94, 61, 176, 108, 15, 61, 172, 144, 210, 188, 168, 223, 129, 59, 117, 141, 142, 189, 177, 137, 18, 188, 164, 201, 83, 189, 92, 230, 160, 186, 180, 30, 21, 61, 244, 49, 231, 58, 185, 169, 182, 189, 53, 210, 147, 60, 135, 79, 23, 189, 255, 149, 153, 188, 153, 117, 13, 189, 93, 165, 181, 188, 153, 129, 1, 61, 7, 246, 216, 188, 219, 218, 101, 60, 153, 7, 182, 188, 138, 52, 63, 189, 58, 8, 45, 189, 18, 213, 198, 188, 94, 59, 60, 61, 52, 200, 87, 61, 139, 12, 235, 187, 148, 107, 20, 61, 90, 102, 154, 187, 28, 119, 190, 188, 28, 40, 81, 188, 199, 221, 57, 188, 226, 151, 227, 60, 135, 185, 23, 60, 141, 153, 67, 189, 223, 247, 80, 61, 247, 141, 62, 188, 180, 243, 55, 188, 248, 90, 75, 188, 46, 125, 74, 61, 180, 197, 60, 189, 104, 254, 15, 189, 45, 70, 242, 188, 228, 234, 116, 188, 222, 51, 0, 189, 87, 212, 64, 189, 182, 189, 25, 187, 243, 61, 37, 188, 47, 8, 234, 60, 210, 98, 188, 188, 57, 74, 128, 189, 90, 26, 25, 188, 65, 175, 67, 188, 211, 71, 224, 59, 221, 95, 248, 188, 212, 52, 232, 188, 128, 183, 48, 188, 8, 42, 196, 60, 37, 168, 130, 61, 178, 50, 11, 59, 210, 33, 127, 61, 57, 97, 208, 60, 197, 161, 98, 61, 47, 28, 244, 188, 118, 75, 10, 189, 206, 22, 236, 188, 22, 252, 109, 61, 15, 83, 125, 59, 25, 95, 47, 61, 244, 60, 227, 60, 33, 15, 173, 188, 85, 13, 9, 187, 42, 175, 128, 189, 85, 5, 110, 61, 222, 106, 87, 61, 23, 254, 58, 61, 4, 12, 243, 188, 227, 34, 43, 61, 57, 60, 33, 61, 39, 34, 29, 61, 82, 193, 181, 60, 154, 218, 99, 189, 174, 117, 100, 187, 163, 4, 30, 189, 83, 77, 131, 188, 133, 29, 99, 61, 148, 9, 118, 189, 134, 15, 54, 189, 51, 80, 235, 188, 18, 67, 25, 189, 62, 88, 79, 189, 197, 43, 240, 188, 173, 155, 48, 188, 227, 211, 152, 188, 213, 136, 82, 61, 99, 61, 74, 59, 14, 173, 165, 188, 149, 10, 183, 60, 209, 67, 71, 61, 16, 97, 10, 61, 101, 173, 123, 61, 173, 111, 175, 60, 156, 125, 58, 61, 204, 193, 204, 188, 4, 27, 221, 60, 148, 150, 60, 59, 48, 208, 98, 61, 119, 53, 192, 188, 132, 128, 57, 189, 17, 234, 246, 188, 15, 186, 0, 189, 53, 48, 62, 61, 77, 84, 2, 189, 7, 217, 138, 187, 203, 116, 64, 189, 231, 254, 234, 188, 129, 74, 160, 187, 117, 209, 35, 189, 104, 90, 211, 188, 202, 141, 191, 59, 223, 81, 22, 61, 188, 140, 173, 59, 145, 42, 103, 189, 235, 183, 175, 188, 127, 208, 102, 189, 124, 49, 58, 61, 211, 128, 235, 58, 94, 109, 229, 188, 239, 172, 82, 188, 135, 150, 232, 60, 38, 31, 35, 61, 225, 84, 94, 189, 100, 178, 60, 188, 205, 255, 66, 189, 211, 250, 97, 61, 1, 237, 188, 188, 89, 156, 222, 60, 225, 157, 75, 61, 47, 186, 216, 188, 240, 78, 16, 60, 174, 175, 130, 188, 43, 144, 55, 61, 208, 65, 14, 61, 114, 47, 102, 189, 4, 146, 131, 188, 21, 249, 99, 59, 173, 13, 19, 186, 207, 22, 19, 189, 137, 7, 45, 189, 73, 48, 144, 60, 239, 231, 65, 188, 219, 3, 29, 61, 170, 111, 81, 60, 171, 189, 31, 189, 166, 76, 189, 60, 43, 188, 172, 187, 252, 175, 90, 189, 225, 65, 131, 188, 231, 186, 45, 188, 102, 242, 133, 189, 159, 37, 61, 189, 114, 208, 122, 59, 148, 74, 163, 60, 56, 133, 163, 188, 161, 76, 78, 60, 220, 119, 138, 189, 0, 171, 142, 189, 229, 82, 30, 60, 97, 4, 30, 189, 4, 251, 122, 189, 18, 10, 18, 189, 34, 145, 250, 188, 100, 5, 141, 189, 200, 162, 48, 188, 83, 113, 193, 188, 111, 11, 85, 188, 228, 251, 118, 189, 250, 147, 167, 60, 189, 88, 150, 188, 129, 97, 133, 60, 74, 57, 205, 57, 115, 69, 84, 188, 200, 69, 134, 188, 144, 73, 62, 189, 23, 148, 39, 189, 158, 2, 87, 188, 75, 223, 198, 58, 78, 221, 68, 188, 190, 175, 159, 188, 95, 103, 177, 189, 226, 81, 164, 189, 149, 20, 3, 189, 86, 26, 174, 61, 98, 25, 78, 188, 230, 239, 80, 189, 167, 13, 186, 60, 73, 119, 162, 59, 127, 207, 173, 188, 218, 238, 53, 189, 119, 24, 5, 189, 153, 223, 7, 189, 232, 208, 131, 61, 253, 66, 2, 189, 28, 60, 243, 185, 114, 153, 147, 188, 107, 28, 6, 188, 168, 74, 240, 188, 63, 156, 226, 187, 175, 216, 125, 188, 132, 168, 69, 188, 62, 119, 24, 60, 183, 195, 21, 189, 166, 124, 100, 188, 126, 65, 187, 60, 137, 174, 152, 188, 2, 186, 22, 61, 197, 55, 75, 61, 8, 180, 176, 60, 11, 209, 216, 58, 220, 93, 67, 61, 246, 123, 139, 60, 42, 82, 25, 188, 59, 54, 153, 188, 90, 93, 46, 61, 186, 35, 3, 189, 71, 190, 21, 188, 113, 94, 28, 189, 154, 9, 105, 61, 95, 234, 1, 61, 98, 195, 226, 187, 148, 13, 244, 188, 59, 145, 149, 187, 76, 195, 161, 60, 4, 83, 43, 61, 17, 245, 62, 189, 155, 150, 251, 60, 55, 210, 32, 189, 192, 163, 135, 189, 2, 35, 32, 189, 40, 89, 14, 60, 32, 83, 190, 184, 95, 37, 87, 61, 63, 51, 10, 61, 36, 137, 21, 61, 0, 27, 30, 60, 209, 0, 143, 59, 25, 95, 81, 189, 79, 50, 43, 189, 38, 20, 74, 61, 76, 227, 8, 61, 218, 2, 31, 60, 29, 201, 24, 188, 41, 223, 107, 61, 171, 171, 64, 188, 212, 44, 36, 189, 224, 241, 26, 60, 196, 103, 83, 60, 246, 208, 216, 60, 42, 134, 156, 60, 140, 36, 109, 187, 155, 180, 78, 187, 145, 54, 10, 189, 185, 93, 149, 187, 45, 211, 58, 61, 49, 159, 9, 186, 132, 253, 196, 60, 130, 242, 159, 60, 168, 137, 6, 60, 225, 15, 18, 189, 231, 217, 234, 186, 42, 154, 239, 187, 121, 195, 30, 188, 26, 245, 131, 188, 230, 151, 69, 60, 253, 215, 199, 188, 26, 30, 9, 188, 137, 19, 104, 189, 2, 28, 60, 61, 52, 196, 72, 189, 220, 8, 12, 61, 123, 212, 246, 188, 75, 37, 93, 189, 39, 37, 130, 60, 126, 107, 7, 189, 236, 16, 2, 189, 70, 119, 3, 189, 121, 100, 122, 60, 64, 133, 101, 188, 125, 105, 37, 189, 130, 51, 82, 61, 248, 182, 105, 58, 188, 83, 232, 188, 236, 23, 193, 188, 101, 52, 71, 60, 134, 146, 153, 188, 241, 209, 85, 60, 190, 1, 130, 60, 85, 196, 67, 61, 219, 44, 89, 188, 82, 19, 74, 189, 7, 147, 187, 60, 61, 168, 162, 188, 103, 217, 49, 61, 166, 58, 66, 61, 102, 9, 7, 189, 176, 35, 125, 188, 242, 146, 194, 60, 87, 70, 241, 59, 176, 89, 242, 60, 118, 85, 17, 61, 90, 177, 0, 189, 107, 38, 51, 61, 7, 213, 44, 60, 10, 172, 33, 58, 11, 174, 220, 188, 166, 94, 208, 60, 188, 17, 65, 60, 137, 95, 24, 61, 104, 0, 22, 189, 169, 223, 134, 188, 44, 32, 93, 60, 193, 37, 122, 188, 214, 72, 48, 60, 177, 153, 129, 188, 29, 95, 173, 188, 20, 69, 113, 187, 246, 39, 156, 60, 119, 137, 54, 189, 148, 5, 195, 186, 160, 177, 137, 59, 187, 181, 246, 188, 58, 223, 55, 60, 30, 208, 20, 189, 237, 6, 57, 188, 59, 10, 117, 189, 216, 211, 127, 189, 160, 175, 242, 60, 236, 192, 93, 60, 148, 218, 187, 60, 178, 55, 161, 60, 168, 17, 77, 61, 191, 44, 236, 186, 205, 12, 244, 188, 181, 171, 123, 188, 32, 147, 31, 188, 99, 138, 30, 60, 27, 174, 5, 189, 69, 119, 123, 188, 58, 237, 231, 186, 250, 113, 220, 60, 222, 195, 25, 189, 65, 212, 61, 187, 207, 143, 50, 60, 223, 29, 12, 60, 123, 15, 253, 60, 49, 245, 248, 188, 134, 170, 75, 189, 108, 230, 208, 187, 229, 29, 156, 59, 61, 196, 12, 61, 11, 110, 97, 189, 80, 96, 142, 60, 87, 226, 16, 61, 127, 210, 214, 57, 36, 222, 77, 61, 143, 24, 223, 187, 16, 240, 53, 188, 143, 40, 15, 189, 184, 244, 142, 188, 123, 9, 183, 59, 51, 20, 76, 189, 254, 219, 157, 188, 156, 140, 240, 186, 64, 6, 108, 189, 121, 77, 237, 188, 133, 236, 145, 59, 141, 52, 56, 187, 119, 197, 152, 188, 2, 191, 163, 60, 78, 78, 52, 189, 134, 142, 49, 188, 133, 69, 57, 189, 67, 216, 101, 60, 125, 132, 126, 188, 132, 104, 120, 61, 108, 217, 3, 189, 91, 92, 94, 189, 87, 29, 119, 189, 255, 122, 222, 188, 7, 216, 56, 189, 153, 8, 201, 60, 191, 153, 94, 60, 68, 56, 48, 61, 72, 133, 41, 60, 187, 5, 58, 189, 226, 113, 159, 189, 77, 242, 71, 189, 230, 186, 70, 61, 187, 240, 154, 188, 240, 87, 192, 60, 107, 12, 78, 189, 200, 222, 216, 187, 226, 10, 188, 188, 177, 41, 13, 189, 185, 120, 222, 188, 7, 98, 217, 60, 13, 84, 69, 61, 20, 225, 3, 60, 105, 116, 197, 60, 100, 32, 16, 61, 255, 225, 151, 60, 77, 94, 30, 189, 152, 168, 172, 60, 135, 9, 176, 188, 124, 80, 148, 187, 222, 186, 202, 187, 51, 220, 107, 187, 241, 71, 215, 188, 84, 124, 81, 61, 241, 60, 243, 188, 57, 61, 60, 61, 174, 243, 137, 188, 92, 79, 48, 61, 64, 73, 7, 189, 84, 202, 89, 58, 137, 129, 40, 189, 205, 178, 68, 189, 124, 233, 74, 188, 7, 237, 5, 61, 230, 19, 30, 189, 53, 24, 90, 189, 102, 78, 217, 187, 141, 31, 85, 60, 44, 114, 137, 59, 84, 65, 29, 187, 180, 223, 15, 188, 22, 136, 62, 189, 228, 165, 92, 60, 246, 244, 17, 59, 199, 234, 54, 61, 104, 41, 196, 188, 127, 237, 178, 60, 47, 113, 253, 188, 149, 64, 129, 188, 128, 10, 196, 55, 233, 181, 177, 188, 90, 183, 153, 60, 102, 177, 243, 188, 229, 204, 236, 188, 198, 115, 93, 187, 153, 89, 53, 189, 148, 214, 183, 188, 76, 71, 15, 188, 62, 13, 54, 189, 99, 72, 99, 189, 116, 15, 7, 61, 53, 49, 202, 60, 150, 51, 88, 60, 108, 254, 34, 189, 38, 133, 0, 61, 97, 162, 14, 189, 237, 241, 49, 60, 188, 15, 154, 188, 183, 159, 125, 188, 74, 65, 92, 188, 178, 91, 180, 184, 143, 31, 66, 189, 50, 15, 25, 189, 189, 118, 205, 60, 111, 250, 175, 60, 188, 151, 203, 186, 52, 173, 46, 189, 239, 193, 100, 61, 11, 6, 83, 187, 4, 72, 0, 61, 238, 137, 158, 188, 172, 96, 202, 188, 212, 18, 154, 59, 139, 190, 72, 61, 167, 242, 72, 60, 254, 125, 134, 60, 36, 246, 28, 58, 183, 94, 201, 60, 159, 235, 89, 189, 66, 101, 37, 186, 126, 202, 201, 188, 109, 244, 1, 61, 109, 51, 20, 189, 252, 9, 20, 188, 74, 102, 28, 189, 0, 65, 147, 188, 145, 109, 232, 188, 20, 208, 37, 60, 149, 131, 150, 60, 59, 89, 17, 189, 36, 176, 140, 60, 124, 170, 248, 188, 226, 7, 144, 188, 160, 212, 2, 189, 170, 167, 199, 59, 199, 94, 143, 59, 138, 238, 219, 188, 79, 22, 217, 60, 131, 201, 235, 59, 186, 69, 20, 61, 53, 139, 115, 189, 96, 70, 50, 189, 164, 172, 18, 188, 16, 118, 239, 188, 240, 117, 90, 60, 0, 108, 109, 60, 154, 202, 162, 60, 50, 16, 82, 188, 1, 17, 138, 188, 5, 87, 46, 61, 48, 80, 240, 187, 210, 45, 69, 188, 207, 177, 178, 188, 113, 242, 50, 61, 153, 36, 24, 189, 66, 107, 56, 59, 103, 161, 18, 61, 193, 68, 214, 59, 157, 56, 113, 188, 187, 51, 1, 61, 231, 181, 22, 188, 48, 18, 80, 189, 197, 155, 57, 189, 47, 156, 202, 60, 118, 83, 225, 186, 213, 58, 0, 186, 44, 39, 74, 189, 116, 70, 42, 189, 164, 253, 114, 189, 99, 180, 81, 187, 99, 100, 66, 188, 208, 37, 151, 60, 105, 179, 43, 189, 134, 128, 84, 60, 94, 72, 129, 189, 249, 255, 156, 188, 150, 205, 80, 61, 233, 179, 13, 189, 191, 197, 118, 189, 205, 10, 225, 187, 0, 237, 84, 59, 95, 21, 123, 61, 146, 111, 23, 187, 56, 197, 105, 189, 127, 74, 198, 60, 73, 30, 121, 189, 148, 252, 163, 58, 163, 44, 89, 59, 69, 53, 173, 60, 108, 13, 114, 187, 66, 80, 255, 59, 231, 50, 49, 189, 14, 129, 232, 187, 76, 205, 86, 188, 48, 100, 31, 188, 24, 101, 196, 59, 59, 237, 198, 60, 249, 146, 136, 188, 32, 209, 39, 61, 62, 35, 23, 60, 236, 81, 87, 189, 253, 12, 127, 61, 19, 223, 61, 189, 191, 88, 32, 61, 114, 38, 39, 189, 18, 29, 141, 59, 58, 28, 124, 187, 29, 73, 6, 61, 46, 25, 1, 60, 212, 81, 155, 189, 18, 5, 131, 60, 61, 119, 61, 61, 179, 137, 166, 189, 58, 96, 117, 60, 228, 123, 29, 60, 62, 162, 129, 61, 212, 12, 190, 60, 68, 36, 25, 187, 206, 106, 166, 60, 91, 74, 53, 188, 232, 253, 110, 59, 28, 106, 17, 188, 83, 240, 63, 59, 254, 55, 49, 188, 166, 104, 235, 188, 2, 55, 62, 60, 172, 113, 154, 188, 96, 51, 208, 188, 127, 10, 78, 60, 240, 210, 100, 189, 227, 2, 17, 61, 115, 236, 170, 188, 60, 125, 92, 189, 185, 28, 165, 60, 211, 140, 191, 188, 147, 228, 82, 61, 54, 153, 28, 189, 183, 50, 60, 188, 156, 3, 1, 61, 207, 56, 183, 59, 102, 143, 128, 188, 255, 96, 85, 188, 78, 74, 47, 188, 155, 128, 24, 61, 116, 127, 128, 60, 31, 29, 145, 188, 160, 56, 221, 188, 65, 42, 197, 60, 48, 187, 176, 60, 146, 2, 250, 60, 122, 246, 100, 189, 243, 184, 13, 61, 101, 100, 48, 188, 198, 96, 78, 188, 77, 20, 64, 188, 115, 46, 14, 189, 173, 33, 70, 61, 79, 227, 196, 187, 254, 98, 189, 188, 106, 146, 130, 60, 114, 77, 34, 61, 241, 236, 25, 189, 217, 32, 62, 59, 77, 11, 172, 60, 86, 111, 91, 188, 157, 146, 151, 187, 27, 13, 77, 61, 20, 202, 54, 60, 255, 184, 51, 189, 254, 167, 154, 60, 110, 87, 114, 58, 248, 25, 19, 59, 200, 243, 12, 189, 160, 163, 48, 189, 24, 7, 49, 61, 159, 79, 215, 187, 144, 151, 220, 188, 131, 79, 234, 188, 114, 31, 162, 188, 145, 160, 135, 186, 133, 13, 78, 61, 34, 24, 247, 60, 15, 2, 78, 60, 68, 158, 101, 60, 110, 182, 146, 60, 179, 254, 228, 60, 90, 142, 14, 189, 170, 105, 243, 60, 239, 67, 48, 61, 11, 75, 237, 187, 2, 41, 59, 189, 112, 14, 58, 61, 36, 82, 106, 188, 243, 23, 107, 188, 172, 12, 53, 189, 51, 156, 232, 59, 62, 15, 152, 188, 6, 137, 12, 189, 157, 30, 167, 188, 235, 155, 109, 60, 33, 246, 149, 60, 170, 124, 71, 60, 16, 28, 53, 189, 186, 161, 10, 61, 27, 178, 186, 59, 57, 14, 59, 61, 128, 13, 181, 60, 4, 119, 111, 187, 57, 10, 32, 189, 45, 58, 24, 188, 108, 128, 14, 61, 171, 73, 47, 189, 88, 168, 251, 60, 157, 176, 48, 60, 6, 74, 51, 61, 49, 124, 50, 189, 188, 92, 47, 188, 86, 255, 107, 61, 180, 186, 200, 59, 88, 72, 7, 188, 166, 136, 138, 188, 139, 144, 51, 61, 210, 132, 25, 61, 103, 148, 130, 189, 246, 187, 202, 188, 29, 181, 147, 60, 196, 220, 178, 188, 32, 3, 240, 59, 69, 122, 182, 188, 189, 5, 149, 188, 54, 8, 61, 189, 17, 225, 143, 188, 12, 143, 114, 188, 39, 68, 147, 186, 179, 39, 66, 189, 122, 213, 164, 60, 198, 73, 1, 61, 89, 126, 56, 61, 239, 169, 155, 60, 147, 127, 17, 61, 234, 192, 33, 189, 35, 121, 236, 188, 83, 191, 110, 189, 93, 231, 201, 187, 228, 29, 134, 60, 75, 56, 44, 189, 177, 145, 40, 189, 148, 171, 146, 188, 2, 69, 22, 188, 145, 174, 95, 188, 86, 133, 96, 188, 202, 244, 70, 61, 99, 79, 72, 189, 134, 82, 51, 189, 28, 138, 222, 60, 94, 198, 255, 187, 109, 92, 116, 189, 26, 183, 135, 189, 143, 244, 65, 189, 6, 10, 70, 189, 192, 58, 9, 61, 219, 36, 47, 57, 118, 108, 54, 189, 135, 229, 206, 188, 44, 128, 244, 188, 110, 252, 17, 189, 223, 116, 118, 187, 253, 16, 18, 187, 21, 8, 115, 188, 43, 227, 28, 189, 41, 16, 31, 61, 227, 215, 144, 189, 71, 110, 19, 188, 66, 247, 157, 60, 253, 34, 174, 188, 166, 182, 248, 186, 116, 220, 244, 60, 46, 66, 158, 187, 29, 157, 88, 61, 244, 145, 38, 184, 47, 42, 252, 59, 183, 195, 164, 61, 44, 230, 128, 188, 57, 83, 128, 189, 170, 67, 39, 188, 181, 11, 130, 188, 80, 202, 183, 186, 108, 151, 213, 59, 148, 26, 142, 60, 196, 27, 97, 189, 154, 163, 13, 189, 104, 89, 189, 59, 49, 54, 133, 189, 148, 12, 250, 188, 184, 199, 3, 61, 25, 47, 112, 189, 181, 218, 188, 189, 20, 92, 224, 188, 172, 17, 112, 187, 88, 59, 47, 189, 72, 178, 170, 188, 173, 94, 89, 189, 137, 176, 45, 61, 82, 82, 44, 189, 54, 250, 174, 60, 230, 179, 254, 59, 160, 172, 190, 60, 162, 159, 72, 61, 159, 186, 235, 188, 21, 155, 160, 60, 197, 214, 23, 61, 0, 25, 130, 189, 10, 90, 37, 61, 9, 250, 153, 60, 186, 68, 70, 60, 180, 14, 179, 60, 216, 198, 250, 187, 104, 131, 1, 188, 251, 198, 186, 188, 154, 132, 221, 188, 253, 118, 209, 188, 228, 176, 50, 60, 80, 27, 78, 189, 143, 47, 190, 60, 212, 36, 139, 188, 128, 97, 244, 60, 67, 211, 236, 59, 185, 240, 181, 60, 36, 91, 55, 189, 170, 246, 17, 188, 11, 128, 10, 189, 244, 61, 21, 189, 61, 74, 160, 188, 225, 38, 213, 187, 113, 250, 248, 188, 149, 94, 35, 61, 12, 67, 233, 59, 29, 148, 237, 187, 247, 70, 59, 61, 67, 188, 62, 61, 160, 77, 164, 187, 199, 148, 37, 61, 193, 17, 67, 188, 38, 213, 19, 59, 198, 150, 17, 60, 138, 88, 1, 60, 69, 69, 26, 189, 181, 12, 230, 188, 142, 55, 92, 60, 181, 23, 240, 188, 110, 25, 16, 61, 80, 164, 79, 189, 85, 58, 26, 60, 38, 163, 181, 188, 168, 207, 145, 187, 205, 43, 158, 187, 14, 63, 48, 189, 194, 248, 97, 60, 213, 158, 155, 59, 75, 117, 154, 60, 47, 0, 131, 187, 226, 40, 39, 188, 148, 154, 94, 189, 72, 143, 194, 58, 21, 241, 85, 189, 46, 25, 194, 60, 225, 140, 185, 60, 33, 83, 54, 189, 55, 142, 243, 188, 20, 25, 154, 60, 128, 71, 152, 59, 249, 110, 27, 61, 201, 162, 42, 189, 198, 244, 10, 60, 122, 169, 22, 60, 26, 111, 162, 59, 75, 26, 221, 59, 221, 102, 109, 187, 107, 38, 161, 187, 34, 171, 104, 60, 234, 79, 244, 60, 200, 163, 28, 60, 121, 140, 177, 60, 64, 87, 156, 59, 127, 39, 199, 185, 187, 122, 166, 60, 248, 221, 32, 61, 86, 36, 72, 189, 69, 238, 25, 61, 193, 77, 200, 60, 96, 78, 87, 60, 137, 125, 0, 61, 155, 57, 61, 61, 235, 57, 95, 186, 148, 122, 24, 61, 57, 191, 240, 60, 209, 160, 151, 188, 211, 46, 39, 189, 20, 71, 225, 60, 109, 252, 57, 60, 148, 207, 32, 61, 168, 249, 2, 188, 205, 240, 18, 61, 152, 28, 195, 58, 162, 17, 69, 188, 143, 63, 121, 188, 151, 181, 145, 187, 229, 14, 105, 61, 243, 123, 212, 60, 65, 23, 226, 59, 117, 181, 20, 189, 36, 101, 24, 189, 115, 240, 206, 60, 67, 74, 14, 61, 93, 205, 179, 60, 134, 47, 50, 61, 158, 102, 204, 60, 117, 80, 9, 189, 60, 107, 20, 61, 212, 143, 4, 61, 3, 208, 45, 61, 212, 52, 211, 60, 43, 243, 108, 189, 101, 76, 180, 188, 21, 99, 93, 189, 80, 63, 165, 188, 76, 99, 151, 188, 162, 173, 93, 60, 199, 98, 4, 189, 177, 128, 6, 189, 33, 200, 185, 188, 207, 156, 18, 188, 24, 225, 170, 188, 205, 151, 148, 60, 135, 176, 190, 59, 33, 118, 54, 61, 189, 33, 10, 189, 183, 16, 22, 189, 229, 124, 22, 187, 172, 83, 153, 188, 189, 116, 175, 60, 91, 169, 4, 60, 90, 236, 67, 60, 176, 189, 81, 60, 192, 108, 61, 189, 255, 244, 165, 188, 75, 85, 34, 60, 149, 67, 231, 188, 87, 252, 252, 60, 56, 62, 55, 189, 56, 132, 101, 189, 55, 32, 203, 186, 2, 196, 72, 188, 250, 150, 15, 61, 166, 91, 193, 60, 133, 100, 39, 60, 20, 198, 129, 189, 32, 84, 0, 61, 8, 99, 114, 58, 173, 75, 89, 189, 7, 13, 201, 60, 202, 12, 2, 189, 164, 152, 27, 60, 109, 51, 21, 189, 198, 78, 12, 189, 80, 240, 251, 60, 135, 156, 14, 189, 197, 193, 136, 189, 162, 194, 141, 187, 129, 162, 79, 60, 109, 16, 224, 59, 0, 167, 96, 189, 207, 222, 34, 189, 124, 133, 110, 61, 83, 216, 217, 187, 115, 179, 108, 188, 134, 229, 167, 188, 73, 5, 58, 61, 84, 114, 133, 187, 28, 77, 53, 61, 16, 97, 108, 188, 164, 167, 131, 60, 38, 232, 225, 187, 125, 63, 177, 60, 87, 234, 22, 60, 22, 189, 3, 60, 56, 144, 207, 59, 90, 102, 231, 60, 87, 203, 24, 189, 104, 4, 31, 189, 24, 99, 64, 60, 173, 238, 169, 188, 80, 151, 128, 189, 21, 82, 7, 189, 230, 195, 35, 59, 197, 164, 75, 60, 171, 164, 76, 61, 183, 103, 41, 189, 219, 54, 251, 187, 152, 10, 59, 60, 161, 104, 7, 61, 174, 171, 49, 189, 20, 52, 134, 189, 102, 216, 211, 188, 52, 109, 22, 189, 93, 255, 175, 60, 230, 73, 142, 59, 176, 181, 153, 188, 67, 35, 239, 188, 160, 155, 211, 188, 189, 222, 204, 184, 42, 107, 74, 189, 242, 33, 5, 186, 241, 133, 55, 189, 230, 53, 127, 187, 196, 227, 48, 61, 76, 58, 100, 60, 109, 39, 212, 60, 138, 239, 73, 188, 148, 150, 40, 189, 13, 246, 80, 189, 193, 249, 154, 59, 149, 43, 201, 60, 92, 55, 103, 186, 251, 42, 199, 188, 251, 8, 53, 61, 10, 179, 246, 188, 252, 42, 182, 188, 127, 28, 97, 189, 87, 92, 243, 187, 140, 159, 35, 61, 174, 178, 246, 59, 157, 0, 46, 189, 210, 135, 177, 60, 90, 72, 86, 60, 13, 156, 53, 189, 65, 205, 116, 61, 53, 47, 65, 60, 89, 233, 183, 60, 34, 142, 61, 188, 13, 60, 216, 60, 61, 144, 13, 189, 187, 253, 252, 187, 25, 92, 47, 60, 142, 29, 78, 61, 12, 174, 251, 60, 115, 252, 179, 187, 12, 122, 166, 188, 26, 155, 24, 61, 237, 109, 71, 61, 157, 54, 95, 61, 42, 69, 161, 60, 7, 56, 191, 60, 87, 8, 188, 188, 243, 77, 117, 187, 252, 41, 224, 60, 215, 23, 249, 60, 149, 213, 55, 61, 195, 232, 104, 61, 8, 86, 41, 61, 224, 58, 8, 60, 134, 3, 61, 189, 175, 216, 176, 188, 167, 160, 44, 59, 69, 164, 68, 189, 239, 136, 138, 60, 221, 193, 134, 188, 53, 83, 133, 188, 167, 211, 16, 61, 177, 214, 16, 188, 65, 134, 232, 60, 25, 209, 192, 187, 89, 100, 237, 186, 31, 55, 114, 60, 106, 197, 52, 61, 246, 38, 34, 189, 69, 251, 173, 186, 36, 150, 44, 60, 119, 140, 113, 188, 100, 188, 188, 188, 247, 38, 109, 187, 199, 252, 176, 60, 49, 144, 161, 188, 170, 11, 214, 60, 25, 11, 74, 189, 28, 11, 42, 61, 81, 13, 81, 189, 116, 223, 226, 60, 151, 12, 211, 187, 14, 110, 177, 60, 137, 187, 161, 59, 131, 4, 17, 61, 101, 32, 9, 189, 146, 106, 183, 188, 81, 206, 68, 59, 193, 144, 182, 58, 167, 226, 181, 188, 18, 161, 187, 188, 187, 130, 14, 61, 32, 39, 85, 189, 119, 162, 4, 60, 184, 205, 218, 60, 195, 190, 27, 61, 193, 173, 30, 189, 222, 54, 8, 61, 92, 223, 32, 61, 114, 215, 205, 188, 103, 16, 37, 189, 29, 59, 189, 188, 166, 217, 62, 187, 96, 89, 209, 187, 115, 191, 41, 60, 4, 104, 228, 60, 123, 81, 56, 61, 4, 87, 155, 60, 161, 174, 25, 61, 200, 129, 34, 189, 106, 202, 15, 189, 251, 36, 27, 61, 141, 143, 45, 189, 109, 106, 57, 59, 196, 163, 21, 59, 143, 191, 181, 60, 120, 235, 216, 188, 36, 28, 238, 60, 96, 203, 188, 188, 75, 187, 43, 189, 246, 105, 79, 188, 19, 110, 166, 60, 199, 81, 52, 188, 12, 51, 4, 189, 78, 156, 63, 189, 254, 14, 19, 189, 70, 233, 7, 61, 119, 40, 152, 188, 215, 35, 30, 61, 233, 205, 168, 187, 30, 20, 253, 59, 60, 200, 79, 189, 254, 2, 251, 188, 244, 194, 50, 189, 161, 246, 20, 61, 31, 88, 128, 60, 58, 89, 15, 61, 103, 147, 23, 60, 122, 192, 70, 188, 149, 129, 34, 60, 63, 35, 13, 61, 238, 48, 83, 189, 162, 123, 60, 189, 20, 241, 34, 61, 58, 105, 187, 188, 23, 212, 50, 61, 129, 148, 6, 61, 127, 5, 164, 187, 248, 232, 210, 188, 88, 152, 75, 61, 49, 79, 93, 189, 168, 246, 76, 60, 34, 207, 17, 189, 217, 154, 157, 189, 219, 246, 111, 60, 20, 50, 147, 60, 154, 64, 72, 189, 186, 179, 125, 189, 39, 11, 55, 60, 245, 13, 178, 60, 151, 65, 0, 188, 78, 19, 23, 61, 70, 225, 60, 60, 33, 251, 2, 188, 146, 175, 96, 189, 240, 76, 34, 189, 29, 252, 45, 188, 103, 202, 7, 61, 171, 107, 128, 60, 88, 168, 201, 188, 216, 193, 73, 61, 14, 85, 94, 189, 146, 192, 120, 189, 165, 243, 26, 189, 187, 58, 33, 189, 225, 184, 158, 188, 36, 172, 159, 59, 29, 34, 76, 189, 95, 110, 111, 189, 238, 5, 183, 188, 192, 74, 16, 188, 164, 212, 93, 189, 18, 161, 113, 189, 82, 37, 29, 189, 237, 3, 214, 60, 125, 62, 101, 61, 71, 55, 178, 60, 174, 209, 87, 189, 206, 42, 23, 61, 3, 186, 52, 188, 164, 122, 132, 187, 165, 23, 46, 60, 9, 255, 3, 189, 7, 224, 0, 60, 187, 212, 185, 60, 129, 94, 140, 188, 150, 203, 181, 188, 239, 37, 26, 189, 15, 130, 47, 60, 12, 57, 22, 61, 239, 104, 200, 188, 8, 80, 165, 187, 40, 116, 59, 61, 159, 165, 84, 188, 122, 172, 250, 59, 140, 9, 130, 60, 29, 151, 163, 188, 123, 32, 11, 188, 146, 39, 226, 188, 43, 194, 42, 61, 100, 235, 25, 189, 121, 5, 210, 60, 130, 119, 134, 60, 250, 21, 64, 188, 88, 240, 98, 61, 229, 42, 42, 185, 163, 186, 135, 60, 1, 0, 143, 188, 237, 15, 88, 189, 148, 253, 251, 60, 125, 134, 79, 60, 92, 238, 35, 61, 157, 107, 75, 61, 163, 55, 214, 59, 215, 219, 134, 188, 2, 251, 78, 61, 138, 183, 73, 61, 4, 160, 39, 189, 190, 168, 252, 60, 2, 154, 101, 188, 228, 161, 137, 60, 21, 196, 62, 188, 23, 251, 68, 59, 105, 116, 12, 60, 39, 2, 135, 60, 24, 221, 223, 60, 88, 161, 5, 56, 71, 113, 4, 189, 206, 25, 123, 188, 3, 49, 190, 188, 213, 219, 188, 59, 188, 244, 22, 189, 58, 187, 70, 189, 158, 120, 89, 189, 141, 102, 2, 189, 30, 152, 45, 188, 164, 152, 79, 188, 91, 144, 73, 189, 198, 4, 218, 60, 176, 179, 105, 60, 237, 83, 144, 60, 245, 252, 82, 187, 62, 118, 242, 60, 118, 44, 98, 188, 15, 122, 119, 188, 52, 203, 69, 61, 155, 165, 224, 60, 199, 169, 17, 61, 48, 132, 90, 61, 201, 110, 38, 189, 8, 115, 131, 60, 182, 234, 190, 188, 84, 204, 238, 187, 60, 42, 32, 189, 244, 132, 251, 60, 34, 84, 173, 187, 200, 41, 122, 187, 123, 0, 81, 60, 160, 118, 93, 61, 70, 243, 121, 188, 155, 98, 18, 61, 52, 12, 162, 60, 195, 57, 28, 189, 4, 102, 96, 188, 166, 72, 134, 188, 81, 239, 60, 189, 102, 26, 167, 188, 58, 54, 205, 187, 192, 135, 22, 189, 101, 10, 42, 189, 7, 208, 38, 60, 4, 54, 189, 188, 128, 128, 31, 189, 166, 201, 120, 57, 9, 137, 102, 61, 2, 16, 215, 188, 202, 156, 68, 189, 19, 183, 31, 189, 47, 62, 54, 60, 131, 225, 227, 60, 7, 50, 146, 60, 202, 101, 201, 188, 122, 228, 58, 189, 53, 213, 20, 184, 219, 192, 131, 60, 235, 36, 136, 58, 168, 65, 173, 188, 130, 17, 171, 60, 152, 53, 55, 189, 138, 42, 17, 61, 44, 126, 230, 188, 174, 246, 61, 189, 71, 231, 92, 189, 171, 104, 62, 189, 152, 174, 71, 189, 151, 250, 17, 188, 207, 89, 199, 188, 29, 190, 32, 61, 64, 42, 65, 189, 220, 254, 39, 189, 129, 101, 177, 60, 99, 84, 50, 60, 249, 209, 197, 60, 139, 249, 194, 188, 144, 124, 48, 61, 25, 104, 51, 189, 112, 20, 104, 60, 236, 235, 229, 60, 28, 221, 61, 60, 140, 42, 128, 60, 253, 236, 128, 61, 208, 136, 107, 187, 99, 117, 241, 188, 49, 96, 40, 189, 120, 107, 0, 61, 184, 213, 6, 61, 68, 173, 137, 189, 230, 49, 246, 186, 237, 2, 193, 188, 49, 95, 67, 189, 95, 169, 117, 59, 157, 29, 160, 188, 107, 92, 4, 61, 228, 77, 1, 61, 245, 226, 36, 189, 134, 75, 208, 59, 216, 9, 28, 189, 145, 36, 125, 187, 167, 168, 60, 189, 154, 70, 95, 189, 197, 66, 198, 60, 89, 115, 144, 187, 116, 47, 107, 189, 74, 196, 248, 188, 104, 21, 173, 59, 97, 13, 199, 188, 28, 15, 169, 187, 236, 114, 133, 61, 171, 223, 142, 60, 209, 215, 177, 187, 113, 94, 217, 59, 91, 75, 60, 189, 143, 22, 46, 61, 231, 176, 221, 60, 25, 135, 34, 60, 29, 133, 172, 188, 137, 76, 50, 189, 156, 31, 56, 188, 75, 210, 111, 189, 65, 63, 9, 61, 170, 109, 221, 188, 53, 203, 115, 189, 12, 133, 229, 60, 170, 97, 140, 61, 142, 66, 117, 189, 217, 231, 162, 189, 120, 57, 9, 189, 11, 2, 251, 60, 222, 134, 249, 188, 159, 135, 247, 59, 82, 115, 248, 187, 56, 126, 5, 189, 71, 78, 41, 189, 103, 88, 152, 188, 36, 10, 203, 188, 95, 180, 55, 189, 160, 12, 21, 61, 247, 218, 1, 189, 0, 31, 37, 60, 8, 236, 244, 60, 86, 192, 21, 61, 61, 175, 129, 60, 134, 74, 196, 60, 130, 254, 136, 188, 99, 233, 37, 187, 185, 84, 91, 188, 206, 90, 41, 188, 22, 254, 201, 187, 126, 249, 23, 187, 219, 100, 20, 189, 137, 220, 167, 188, 26, 241, 166, 60, 85, 125, 245, 59, 29, 146, 64, 188, 124, 0, 23, 60, 223, 79, 50, 189, 170, 97, 191, 188, 26, 220, 250, 59, 158, 160, 200, 188, 129, 177, 64, 60, 23, 66, 25, 189, 140, 191, 239, 188, 76, 105, 34, 189, 16, 42, 163, 60, 80, 47, 35, 61, 9, 180, 78, 189, 89, 226, 210, 188, 17, 123, 4, 189, 154, 127, 61, 189, 52, 213, 101, 60, 105, 83, 144, 187, 249, 74, 0, 189, 141, 167, 235, 59, 174, 149, 163, 188, 46, 0, 19, 189, 117, 184, 63, 61, 229, 208, 39, 188, 21, 247, 115, 60, 169, 221, 29, 189, 66, 173, 187, 188, 122, 248, 19, 60, 113, 252, 31, 61, 148, 69, 155, 60, 229, 170, 73, 189, 0, 168, 110, 189, 122, 165, 249, 188, 162, 14, 41, 189, 196, 0, 62, 189, 0, 178, 178, 60, 244, 120, 68, 188, 127, 235, 143, 187, 16, 223, 209, 188, 59, 108, 92, 189, 232, 118, 62, 188, 147, 189, 209, 187, 11, 31, 251, 188, 248, 50, 0, 61, 127, 247, 183, 188, 11, 196, 67, 189, 185, 186, 6, 189, 21, 95, 29, 61, 101, 131, 186, 60, 137, 23, 105, 189, 200, 235, 43, 189, 12, 128, 212, 60, 21, 10, 134, 59, 212, 166, 131, 60, 148, 237, 219, 188, 186, 108, 107, 189, 68, 164, 246, 60, 108, 71, 62, 187, 18, 131, 12, 188, 95, 44, 13, 189, 124, 158, 119, 188, 74, 125, 166, 185, 2, 31, 112, 189, 75, 36, 39, 60, 100, 33, 145, 60, 33, 65, 26, 189, 142, 177, 29, 60, 28, 90, 7, 61, 48, 148, 211, 188, 64, 135, 4, 189, 52, 214, 42, 189, 114, 233, 24, 189, 179, 32, 183, 188, 236, 78, 188, 60, 232, 82, 120, 189, 145, 179, 2, 60, 41, 180, 100, 189, 228, 41, 166, 60, 220, 126, 139, 186, 248, 98, 11, 60, 139, 209, 205, 60, 28, 208, 139, 189, 131, 225, 128, 59, 218, 118, 88, 61, 227, 139, 19, 189, 28, 77, 63, 61, 0, 210, 61, 187, 231, 181, 235, 188, 66, 205, 245, 60, 248, 51, 54, 61, 78, 122, 7, 189, 176, 180, 85, 189, 66, 32, 74, 60, 208, 21, 188, 187, 159, 65, 196, 188, 252, 184, 26, 61, 66, 41, 39, 61, 69, 248, 75, 60, 210, 99, 70, 189, 150, 255, 216, 188, 155, 125, 6, 189, 118, 147, 34, 189, 9, 68, 246, 188, 108, 78, 41, 189, 144, 214, 135, 188, 182, 153, 16, 61, 155, 23, 55, 61, 62, 120, 153, 60, 252, 182, 181, 188, 39, 50, 15, 60, 239, 102, 152, 188, 120, 37, 35, 188, 203, 36, 175, 188, 202, 151, 35, 188, 138, 253, 131, 60, 170, 255, 147, 188, 140, 192, 179, 60, 172, 35, 18, 60, 227, 10, 213, 59, 58, 204, 208, 188, 198, 25, 35, 189, 124, 246, 46, 189, 30, 69, 253, 187, 246, 209, 163, 189, 80, 245, 25, 61, 25, 34, 38, 188, 154, 130, 61, 189, 224, 29, 216, 188, 29, 18, 49, 189, 245, 167, 22, 61, 49, 249, 91, 61, 248, 45, 0, 188, 188, 144, 8, 189, 113, 154, 191, 60, 254, 32, 5, 186, 113, 254, 106, 189, 97, 70, 206, 60, 135, 178, 164, 188, 36, 45, 2, 61, 243, 50, 37, 61, 155, 131, 222, 60, 217, 231, 162, 187, 229, 12, 88, 188, 110, 142, 229, 60, 220, 133, 26, 189, 78, 168, 187, 188, 30, 84, 126, 61, 15, 234, 6, 189, 117, 108, 209, 60, 142, 41, 198, 59, 47, 57, 15, 189, 23, 33, 146, 188, 243, 196, 105, 60, 185, 26, 175, 188, 116, 243, 131, 189, 28, 186, 57, 60, 131, 79, 202, 188, 27, 194, 130, 189, 136, 17, 198, 59, 206, 15, 245, 60, 234, 171, 99, 189, 162, 227, 32, 60, 218, 150, 251, 188, 255, 134, 155, 60, 112, 103, 253, 60, 233, 63, 234, 188, 176, 168, 206, 60, 80, 208, 135, 187, 127, 237, 48, 189, 11, 153, 226, 60, 189, 23, 54, 61, 5, 112, 45, 189, 32, 97, 51, 189, 78, 160, 42, 61, 69, 66, 228, 60, 157, 138, 243, 59, 132, 71, 85, 61, 150, 25, 73, 189, 87, 154, 1, 61, 23, 121, 34, 189, 79, 103, 139, 187, 231, 170, 48, 187, 139, 212, 115, 60, 192, 128, 213, 187, 163, 83, 47, 61, 85, 59, 37, 189, 151, 111, 150, 60, 95, 216, 154, 60, 230, 253, 55, 61, 121, 236, 241, 188, 108, 14, 251, 60, 54, 162, 217, 60, 57, 248, 117, 58, 221, 30, 14, 189, 204, 187, 97, 61, 196, 89, 84, 189, 136, 79, 16, 61, 82, 161, 49, 188, 148, 3, 245, 60, 51, 141, 76, 189, 214, 102, 2, 61, 95, 176, 243, 188, 164, 97, 159, 188, 222, 246, 154, 188, 64, 116, 31, 53, 255, 88, 212, 60, 155, 7, 72, 189, 1, 1, 217, 60, 220, 211, 56, 61, 14, 102, 8, 189, 151, 121, 135, 60, 22, 85, 92, 60, 129, 148, 21, 60, 112, 26, 238, 188, 246, 96, 18, 189, 242, 33, 83, 61, 198, 222, 198, 188, 211, 55, 250, 188, 99, 14, 38, 187, 232, 188, 51, 189, 89, 230, 167, 60, 235, 161, 88, 189, 72, 131, 159, 187, 114, 165, 57, 188, 232, 113, 205, 60, 249, 114, 13, 188, 155, 39, 6, 61, 13, 115, 49, 189, 24, 176, 76, 188, 110, 162, 221, 188, 155, 126, 135, 60, 72, 55, 224, 59, 201, 27, 109, 188, 41, 66, 178, 188, 113, 133, 68, 59, 184, 157, 31, 189, 60, 225, 151, 60, 19, 24, 250, 188, 217, 123, 112, 188, 242, 186, 131, 60, 114, 19, 231, 188, 124, 55, 40, 61, 237, 197, 233, 187, 84, 31, 120, 60, 67, 202, 14, 188, 231, 24, 44, 61, 105, 50, 9, 61, 199, 119, 240, 188, 218, 194, 79, 60, 24, 73, 222, 60, 151, 138, 18, 61, 58, 231, 207, 188, 108, 253, 197, 60, 74, 42, 117, 60, 133, 126, 85, 189, 11, 92, 10, 61, 73, 63, 41, 61, 127, 157, 86, 189, 77, 23, 118, 188, 90, 222, 86, 61, 152, 20, 42, 59, 243, 161, 216, 60, 7, 82, 226, 188, 237, 86, 205, 186, 224, 63, 2, 188, 199, 217, 32, 59, 243, 125, 37, 60, 32, 79, 17, 188, 157, 55, 181, 60, 184, 178, 17, 61, 55, 216, 231, 59, 192, 55, 184, 60, 30, 67, 85, 187, 18, 87, 213, 188, 244, 120, 228, 188, 34, 28, 212, 59, 162, 198, 8, 61, 120, 121, 229, 188, 139, 29, 43, 189, 239, 225, 131, 60, 116, 235, 185, 58, 92, 136, 174, 60, 25, 244, 57, 188, 80, 37, 183, 188, 102, 232, 212, 188, 152, 169, 79, 60, 14, 226, 128, 189, 83, 145, 192, 188, 225, 197, 255, 59, 123, 60, 195, 188, 155, 74, 5, 61, 61, 104, 130, 188, 61, 16, 2, 189, 19, 166, 149, 188, 96, 162, 205, 188, 115, 239, 11, 188, 130, 16, 130, 186, 179, 10, 176, 188, 15, 36, 139, 60, 121, 247, 69, 61, 53, 63, 183, 60, 96, 28, 145, 188, 250, 194, 118, 189, 205, 78, 169, 60, 27, 146, 172, 60, 32, 32, 166, 186, 246, 152, 232, 60, 70, 239, 35, 189, 39, 120, 245, 188, 12, 249, 128, 188, 162, 194, 32, 189, 247, 218, 1, 61, 14, 36, 233, 188, 134, 47, 82, 189, 12, 12, 142, 60, 236, 218, 12, 189, 203, 149, 189, 59, 50, 174, 26, 188, 63, 138, 42, 189, 0, 105, 91, 186, 245, 108, 225, 188, 127, 13, 39, 187, 144, 79, 92, 189, 53, 168, 21, 189, 153, 218, 17, 60, 83, 210, 173, 188, 18, 27, 13, 189, 81, 152, 171, 60, 32, 240, 69, 189, 2, 28, 53, 60, 57, 203, 127, 189, 69, 243, 188, 60, 78, 248, 133, 59, 39, 7, 224, 60, 207, 125, 168, 188, 6, 34, 203, 60, 104, 200, 203, 187, 110, 32, 182, 188, 81, 52, 233, 188, 245, 75, 118, 189, 238, 37, 59, 61, 110, 127, 149, 59, 222, 144, 21, 60, 227, 61, 35, 61, 192, 136, 8, 187, 16, 113, 76, 189, 131, 38, 119, 189, 34, 253, 40, 189, 213, 154, 87, 189, 33, 176, 180, 188, 186, 133, 93, 188, 86, 57, 4, 61, 75, 185, 222, 188, 53, 188, 7, 61, 0, 149, 176, 59, 22, 141, 96, 188, 25, 21, 251, 188, 231, 102, 200, 59, 147, 15, 64, 188, 68, 146, 28, 189, 24, 118, 241, 58, 165, 138, 107, 188, 230, 233, 49, 189, 178, 220, 230, 60, 3, 147, 52, 189, 227, 41, 9, 61, 127, 48, 66, 189, 46, 129, 7, 61, 179, 87, 57, 189, 180, 200, 75, 60, 116, 247, 126, 60, 192, 230, 41, 189, 185, 77, 113, 59, 42, 191, 231, 60, 254, 3, 26, 60, 32, 225, 162, 60, 85, 39, 207, 60, 45, 173, 241, 187, 224, 254, 113, 189, 151, 170, 16, 188, 165, 126, 88, 188, 71, 120, 93, 189, 239, 159, 49, 61, 168, 114, 238, 188, 110, 166, 69, 189, 210, 81, 173, 60, 68, 247, 208, 60, 39, 224, 3, 61, 151, 3, 244, 59, 159, 157, 18, 61, 125, 179, 178, 188, 72, 124, 107, 187, 117, 118, 83, 61, 131, 241, 133, 188, 85, 146, 78, 189, 194, 138, 47, 189, 209, 102, 24, 189, 64, 123, 49, 61, 74, 119, 11, 189, 138, 167, 228, 186, 130, 124, 45, 58, 204, 2, 125, 60, 254, 85, 152, 188, 104, 147, 49, 60, 143, 186, 197, 59, 235, 28, 31, 61, 77, 174, 87, 59, 145, 180, 133, 188, 14, 61, 84, 60, 41, 68, 233, 60, 245, 87, 205, 188, 44, 137, 38, 60, 12, 139, 14, 189, 88, 185, 227, 60, 31, 231, 94, 188, 111, 217, 30, 188, 140, 35, 155, 188, 209, 46, 158, 59, 55, 121, 179, 188, 54, 73, 210, 60, 207, 27, 120, 189, 58, 72, 136, 188, 104, 211, 237, 60, 234, 65, 129, 188, 109, 68, 171, 60, 93, 109, 5, 188, 56, 166, 85, 189, 72, 197, 143, 188, 240, 7, 0, 60, 70, 178, 93, 189, 18, 175, 16, 61, 26, 102, 170, 60, 101, 68, 58, 61, 216, 58, 214, 188, 203, 161, 22, 188, 147, 237, 38, 60, 186, 97, 239, 188, 228, 65, 49, 61, 98, 121, 193, 186, 6, 216, 221, 188, 147, 77, 195, 188, 103, 129, 69, 187, 33, 58, 114, 60, 5, 55, 208, 60, 102, 164, 132, 189, 7, 251, 166, 188, 183, 133, 68, 61, 243, 232, 8, 61, 154, 95, 144, 60, 20, 182, 60, 186, 226, 244, 20, 189, 48, 58, 117, 61, 74, 70, 111, 60, 137, 183, 95, 61, 141, 227, 14, 61, 195, 224, 84, 188, 98, 211, 155, 188, 201, 114, 115, 188, 157, 86, 32, 59, 75, 140, 28, 60, 236, 167, 67, 61, 165, 195, 167, 60, 48, 113, 149, 59, 74, 132, 236, 187, 123, 196, 64, 61, 96, 215, 84, 189, 170, 246, 184, 188, 187, 243, 20, 61, 112, 71, 46, 189, 115, 57, 139, 188, 169, 135, 29, 61, 109, 224, 32, 61, 193, 203, 172, 60, 85, 218, 61, 60, 94, 91, 125, 188, 91, 124, 134, 60, 205, 89, 218, 188, 197, 70, 211, 188, 85, 19, 238, 188, 163, 35, 247, 60, 66, 197, 185, 188, 139, 87, 110, 60, 8, 224, 36, 61, 117, 186, 231, 188, 16, 139, 164, 59, 234, 148, 113, 187, 20, 163, 216, 188, 63, 198, 216, 188, 166, 198, 48, 189, 108, 235, 50, 60, 32, 228, 246, 188, 172, 137, 178, 59, 232, 171, 214, 60, 207, 162, 81, 188, 213, 136, 26, 189, 76, 248, 8, 189, 27, 133, 79, 61, 243, 245, 231, 188, 18, 169, 112, 188, 26, 177, 201, 60, 79, 156, 12, 61, 20, 26, 129, 188, 98, 131, 224, 188, 109, 22, 115, 188, 182, 0, 240, 60, 24, 238, 141, 59, 73, 67, 214, 60, 1, 221, 6, 189, 34, 31, 223, 188, 58, 249, 226, 188, 218, 136, 96, 188, 148, 175, 62, 60, 97, 38, 125, 189, 44, 191, 134, 188, 45, 212, 6, 61, 104, 158, 166, 188, 202, 213, 194, 59, 90, 181, 11, 61, 142, 43, 190, 60, 84, 19, 223, 188, 110, 223, 182, 188, 77, 40, 201, 60, 176, 62, 95, 189, 228, 172, 58, 189, 172, 30, 101, 189, 143, 202, 180, 60, 194, 4, 10, 189, 99, 114, 100, 61, 180, 233, 166, 188, 95, 244, 69, 189, 166, 248, 205, 188, 76, 221, 19, 189, 68, 179, 52, 189, 232, 51, 141, 61, 221, 101, 22, 189, 193, 230, 8, 61, 79, 210, 205, 188, 232, 127, 233, 60, 5, 123, 174, 188, 13, 92, 20, 188, 101, 114, 147, 188, 156, 179, 211, 188, 41, 34, 94, 187, 146, 22, 16, 189, 74, 157, 178, 58, 8, 218, 140, 60, 15, 82, 170, 60, 79, 241, 238, 187, 122, 157, 229, 60, 153, 121, 21, 61, 142, 25, 142, 60, 135, 8, 222, 60, 26, 8, 100, 189, 155, 131, 134, 60, 114, 1, 145, 188, 100, 115, 49, 61, 153, 20, 45, 61, 112, 28, 55, 188, 99, 194, 149, 188, 177, 44, 139, 60, 175, 81, 133, 60, 254, 178, 53, 189, 255, 100, 139, 188, 150, 245, 214, 60, 2, 4, 114, 187, 142, 70, 102, 188, 29, 31, 248, 60, 24, 14, 252, 188, 26, 10, 32, 61, 236, 64, 30, 61, 27, 81, 197, 58, 43, 51, 162, 186, 154, 127, 36, 188, 237, 211, 57, 60, 93, 123, 80, 189, 155, 15, 177, 188, 121, 237, 75, 59, 236, 157, 93, 61, 230, 176, 52, 188, 70, 46, 22, 189, 166, 147, 107, 189, 209, 48, 165, 60, 31, 26, 5, 188, 251, 183, 54, 61, 134, 114, 16, 61, 119, 234, 77, 60, 10, 208, 87, 189, 24, 27, 147, 60, 231, 131, 25, 61, 140, 65, 228, 60, 48, 92, 43, 60, 10, 146, 137, 188, 155, 50, 51, 61, 96, 54, 243, 182, 244, 81, 1, 189, 166, 28, 113, 189, 155, 173, 239, 60, 94, 80, 6, 189, 247, 133, 43, 188, 150, 138, 43, 61, 210, 145, 180, 60, 0, 167, 56, 61, 140, 221, 92, 189, 158, 52, 128, 188, 54, 123, 242, 188, 251, 35, 244, 188, 155, 240, 154, 60, 206, 160, 29, 61, 185, 218, 189, 187, 253, 177, 76, 61, 183, 23, 191, 60, 247, 155, 123, 60, 251, 113, 194, 59, 245, 45, 84, 189, 80, 255, 203, 188, 104, 2, 12, 61, 132, 26, 31, 189, 54, 139, 61, 189, 219, 219, 66, 187, 32, 18, 19, 189, 214, 33, 27, 189, 57, 60, 14, 61, 146, 56, 207, 60, 246, 56, 28, 187, 251, 171, 89, 188, 231, 235, 202, 188, 12, 47, 73, 189, 66, 43, 35, 189, 26, 91, 12, 186, 156, 181, 231, 60, 56, 235, 34, 189, 57, 194, 178, 187, 94, 235, 170, 60, 157, 237, 68, 189, 213, 186, 65, 61, 150, 134, 40, 188, 80, 188, 168, 188, 140, 99, 228, 60, 184, 212, 75, 188, 189, 50, 11, 189, 187, 45, 78, 60, 114, 45, 48, 189, 124, 12, 249, 60, 68, 88, 101, 188, 119, 83, 14, 189, 1, 195, 1, 187, 74, 219, 54, 61, 51, 138, 229, 60, 47, 77, 33, 61, 209, 165, 249, 187, 116, 63, 10, 189, 177, 22, 133, 60, 253, 149, 16, 189, 22, 170, 219, 60, 91, 85, 17, 189, 241, 137, 182, 187, 168, 218, 53, 61, 51, 240, 244, 60, 239, 22, 112, 60, 79, 78, 128, 59, 250, 139, 40, 61, 63, 106, 30, 188, 158, 81, 47, 61, 107, 255, 209, 59, 239, 62, 190, 60, 49, 100, 87, 60, 32, 149, 7, 189, 204, 193, 144, 189, 77, 155, 9, 189, 123, 127, 153, 187, 236, 185, 53, 61, 183, 138, 68, 60, 207, 170, 27, 189, 80, 51, 150, 58, 86, 108, 130, 59, 160, 133, 95, 189, 149, 169, 194, 59, 171, 157, 22, 60, 139, 181, 152, 60, 250, 150, 41, 188, 75, 192, 57, 189, 236, 251, 152, 188, 229, 104, 32, 189, 198, 46, 0, 189, 44, 139, 208, 58, 114, 36, 55, 189, 49, 121, 224, 60, 240, 137, 50, 61, 167, 210, 26, 189, 124, 21, 119, 189, 93, 16, 21, 61, 31, 53, 41, 189, 130, 36, 1, 189, 234, 176, 103, 61, 25, 20, 68, 189, 141, 12, 89, 61, 120, 192, 174, 60, 130, 210, 219, 188, 57, 207, 39, 189, 251, 130, 35, 59, 24, 20, 133, 185, 69, 54, 31, 61, 41, 78, 142, 60, 228, 220, 139, 188, 105, 12, 23, 188, 75, 113, 140, 60, 241, 198, 19, 61, 84, 140, 17, 189, 86, 77, 154, 188, 19, 168, 252, 188, 60, 196, 245, 188, 63, 118, 125, 188, 142, 30, 63, 189, 72, 169, 115, 188, 62, 235, 27, 189, 27, 126, 55, 189, 120, 183, 112, 187, 175, 19, 250, 188, 192, 246, 38, 189, 202, 234, 79, 189, 169, 215, 4, 60, 8, 227, 165, 187, 231, 16, 57, 61, 32, 71, 190, 188, 198, 40, 227, 60, 172, 197, 159, 188, 186, 74, 77, 189, 46, 81, 45, 189, 167, 10, 55, 188, 127, 4, 47, 189, 69, 52, 148, 189, 55, 110, 86, 60, 62, 23, 194, 188, 213, 87, 208, 188, 201, 62, 89, 59, 183, 172, 255, 60, 87, 90, 6, 61, 175, 220, 50, 189, 242, 101, 159, 188, 169, 195, 75, 189, 138, 57, 147, 188, 179, 14, 219, 56, 75, 96, 254, 60, 236, 31, 92, 189, 54, 179, 121, 189, 63, 249, 83, 188, 103, 97, 8, 61, 60, 65, 200, 60, 160, 166, 239, 188, 120, 172, 43, 189, 49, 19, 227, 59, 78, 20, 36, 61, 201, 133, 103, 61, 209, 160, 7, 189, 205, 255, 64, 61, 53, 13, 38, 60, 189, 103, 230, 188, 124, 196, 50, 189, 159, 253, 45, 187, 98, 44, 8, 61, 192, 194, 210, 60, 223, 140, 114, 189, 59, 54, 80, 189, 30, 243, 59, 188, 228, 240, 89, 189, 124, 219, 45, 61, 85, 204, 140, 60, 224, 125, 49, 61, 137, 35, 54, 189, 115, 73, 73, 60, 133, 168, 137, 188, 120, 107, 5, 61, 185, 218, 49, 188, 8, 16, 233, 60, 195, 223, 116, 187, 162, 172, 49, 189, 212, 241, 61, 60, 211, 82, 138, 59, 128, 88, 60, 57, 48, 166, 103, 61, 11, 44, 29, 189, 87, 35, 18, 60, 72, 3, 232, 188, 134, 32, 48, 61, 11, 108, 154, 60, 55, 142, 99, 60, 120, 175, 66, 61, 102, 104, 169, 188, 141, 100, 195, 188, 155, 142, 128, 59, 51, 79, 85, 59, 122, 217, 10, 60, 200, 79, 127, 188, 237, 237, 60, 188, 95, 33, 243, 188, 157, 173, 74, 189, 97, 91, 63, 189, 37, 243, 20, 189, 126, 41, 75, 189, 46, 76, 6, 189, 61, 83, 193, 187, 48, 21, 53, 61, 169, 63, 57, 59, 209, 207, 113, 58, 152, 190, 198, 58, 62, 91, 198, 59, 232, 186, 69, 60, 159, 112, 159, 188, 213, 146, 172, 188, 146, 95, 46, 189, 119, 10, 132, 188, 18, 179, 51, 189, 49, 247, 151, 60, 67, 184, 157, 188, 237, 156, 243, 188, 199, 237, 65, 61, 112, 250, 223, 185, 144, 207, 90, 189, 239, 89, 220, 58, 246, 10, 15, 189, 155, 76, 241, 186, 195, 192, 52, 189, 223, 197, 81, 60, 74, 226, 7, 188, 212, 155, 43, 189, 102, 160, 198, 188, 169, 196, 231, 60, 110, 34, 84, 188, 16, 146, 133, 187, 252, 22, 15, 188, 62, 121, 16, 189, 139, 130, 0, 189, 146, 25, 8, 189, 110, 38, 37, 188, 90, 31, 17, 189, 205, 169, 93, 189, 91, 126, 228, 60, 160, 157, 139, 59, 246, 185, 122, 188, 248, 208, 65, 189, 205, 39, 138, 188, 112, 146, 172, 60, 240, 143, 159, 188, 232, 24, 51, 189, 194, 140, 8, 189, 231, 149, 238, 188, 167, 90, 17, 60, 22, 196, 10, 61, 147, 67, 29, 61, 67, 185, 74, 61, 74, 45, 209, 188, 106, 252, 14, 61, 89, 140, 24, 61, 229, 213, 59, 61, 130, 160, 238, 60, 109, 253, 73, 60, 229, 125, 21, 189, 251, 78, 47, 189, 217, 61, 5, 61, 187, 58, 135, 189, 164, 33, 166, 188, 250, 216, 191, 60, 62, 28, 25, 189, 127, 122, 9, 189, 72, 215, 12, 189, 151, 154, 203, 188, 191, 242, 171, 60, 233, 8, 24, 60, 142, 184, 53, 189, 162, 121, 9, 189, 67, 92, 5, 189, 199, 192, 234, 60, 62, 163, 15, 61, 70, 54, 231, 59, 189, 97, 12, 59, 142, 162, 40, 189, 240, 109, 45, 187, 10, 111, 42, 61, 178, 22, 116, 60, 181, 27, 8, 188, 76, 8, 84, 189, 16, 160, 125, 61, 43, 198, 183, 187, 251, 14, 141, 189, 182, 82, 201, 183, 246, 90, 25, 189, 16, 116, 68, 189, 244, 216, 176, 60, 174, 183, 45, 189, 228, 82, 90, 189, 200, 28, 137, 59, 42, 225, 216, 187, 196, 86, 51, 60, 162, 135, 102, 60, 4, 175, 209, 188, 252, 133, 201, 59, 54, 204, 187, 188, 103, 164, 179, 60, 176, 251, 24, 189, 24, 134, 182, 187, 111, 86, 79, 189, 56, 220, 6, 188, 1, 105, 73, 189, 11, 143, 159, 188, 128, 255, 38, 61, 246, 204, 204, 59, 1, 102, 90, 189, 29, 182, 189, 60, 136, 206, 227, 60, 242, 57, 29, 60, 170, 8, 246, 188, 76, 24, 109, 187, 253, 70, 28, 189, 183, 92, 28, 188, 148, 120, 5, 189, 166, 25, 173, 188, 38, 45, 15, 61, 26, 87, 8, 61, 163, 142, 154, 188, 133, 248, 174, 60, 101, 217, 253, 188, 89, 102, 38, 189, 190, 111, 139, 188, 6, 218, 150, 59, 0, 55, 95, 61, 114, 50, 202, 188, 184, 23, 184, 60, 16, 126, 152, 60, 123, 139, 74, 189, 40, 9, 184, 60, 253, 160, 9, 61, 242, 16, 235, 186, 7, 75, 68, 189, 93, 41, 176, 60, 24, 51, 101, 61, 131, 80, 57, 61, 34, 253, 221, 188, 240, 49, 202, 188, 4, 114, 103, 189, 121, 192, 11, 189, 217, 181, 168, 60, 197, 32, 186, 188, 8, 213, 48, 60, 228, 95, 31, 61, 89, 112, 25, 189, 62, 251, 99, 189, 176, 179, 99, 189, 60, 189, 239, 60, 167, 58, 196, 188, 171, 97, 195, 60, 153, 33, 202, 60, 189, 196, 107, 61, 210, 221, 205, 59, 239, 142, 65, 61, 204, 33, 250, 187, 33, 116, 158, 60, 149, 245, 210, 188, 144, 187, 36, 187, 116, 140, 226, 58, 165, 48, 134, 60, 224, 213, 1, 189, 150, 132, 17, 61, 31, 33, 76, 189, 53, 226, 66, 60, 142, 35, 163, 60, 4, 106, 235, 60, 67, 241, 65, 185, 107, 131, 148, 58, 32, 66, 59, 61, 195, 178, 76, 189, 61, 200, 48, 189, 203, 16, 48, 188, 60, 15, 45, 189, 40, 9, 22, 61, 221, 154, 28, 189, 187, 180, 5, 61, 216, 121, 8, 188, 233, 138, 44, 189, 128, 4, 78, 188, 64, 58, 162, 188, 150, 222, 15, 61, 58, 151, 250, 59, 175, 83, 75, 61, 54, 205, 18, 60, 158, 228, 105, 60, 117, 161, 129, 60, 14, 93, 58, 61, 21, 212, 68, 61, 203, 10, 171, 60, 231, 230, 66, 189, 144, 88, 45, 189, 11, 28, 225, 60, 28, 173, 54, 187, 190, 197, 181, 60, 223, 94, 73, 189, 5, 128, 155, 188, 17, 197, 234, 59, 167, 14, 58, 60, 174, 26, 145, 60, 208, 153, 48, 59, 38, 95, 155, 60, 8, 86, 39, 189, 44, 201, 14, 189, 75, 166, 131, 188, 237, 243, 8, 61, 15, 38, 115, 189, 27, 105, 48, 61, 144, 65, 185, 188, 139, 151, 191, 58, 0, 149, 15, 60, 213, 4, 49, 188, 178, 201, 77, 188, 243, 62, 249, 60, 61, 156, 255, 60, 154, 136, 69, 58, 58, 77, 218, 188, 224, 72, 242, 60, 186, 109, 6, 189, 23, 232, 116, 188, 207, 139, 6, 61, 149, 228, 7, 61, 146, 150, 140, 187, 67, 138, 216, 59, 233, 164, 234, 188, 89, 17, 102, 189, 86, 210, 128, 188, 227, 158, 60, 61, 186, 223, 108, 60, 239, 254, 41, 189, 199, 55, 13, 189, 70, 185, 20, 61, 235, 0, 51, 61, 226, 201, 30, 188, 235, 231, 202, 187, 13, 84, 51, 189, 124, 228, 71, 61, 25, 137, 127, 188, 64, 116, 144, 188, 234, 113, 56, 61, 55, 14, 79, 189, 180, 13, 115, 188, 75, 132, 58, 188, 164, 120, 186, 59, 26, 232, 238, 188, 92, 53, 22, 61, 175, 48, 161, 59, 190, 210, 76, 186, 157, 25, 207, 60, 2, 186, 18, 189, 152, 128, 9, 61, 243, 176, 184, 60, 184, 54, 51, 189, 173, 233, 13, 188, 221, 18, 68, 61, 255, 241, 63, 189, 208, 187, 190, 188, 188, 158, 118, 189, 68, 247, 20, 61, 29, 170, 73, 189, 252, 177, 33, 60, 212, 61, 44, 189, 157, 252, 209, 60, 252, 89, 22, 61, 96, 165, 84, 189, 132, 204, 127, 188, 0, 216, 12, 61, 226, 224, 8, 61, 84, 193, 31, 61, 211, 153, 138, 60, 82, 252, 211, 59, 201, 75, 53, 189, 1, 194, 190, 188, 8, 82, 251, 60, 93, 67, 52, 60, 231, 245, 5, 61, 102, 141, 148, 188, 208, 159, 24, 189, 8, 237, 52, 61, 158, 123, 55, 189, 3, 107, 204, 188, 34, 0, 148, 60, 23, 153, 7, 189, 195, 175, 193, 187, 183, 2, 61, 189, 170, 141, 223, 188, 57, 210, 208, 188, 73, 105, 70, 189, 44, 28, 214, 187, 233, 45, 237, 188, 28, 12, 58, 187, 151, 143, 112, 61, 224, 4, 224, 187, 20, 152, 16, 188, 214, 15, 69, 188, 171, 191, 190, 188, 87, 178, 4, 189, 13, 234, 109, 61, 233, 63, 3, 189, 14, 139, 53, 189, 197, 231, 15, 189, 70, 11, 20, 61, 77, 232, 228, 59, 185, 0, 45, 61, 73, 25, 101, 60, 197, 119, 68, 189, 203, 233, 165, 60, 179, 242, 93, 60, 156, 108, 145, 188, 207, 244, 59, 60, 247, 19, 82, 61, 184, 5, 143, 188, 19, 110, 143, 189, 6, 206, 212, 188, 123, 176, 182, 188, 3, 139, 243, 60, 202, 213, 32, 60, 185, 230, 16, 60, 42, 88, 48, 189, 149, 254, 10, 189, 194, 61, 30, 188, 68, 160, 31, 61, 147, 205, 135, 60, 137, 105, 79, 60, 95, 6, 217, 60, 236, 76, 105, 189, 69, 93, 145, 188, 24, 90, 155, 60, 139, 135, 13, 61, 83, 78, 132, 188, 233, 166, 251, 188, 191, 12, 57, 61, 17, 14, 74, 61, 119, 63, 3, 60, 211, 58, 16, 61, 7, 120, 89, 189, 38, 143, 130, 60, 246, 233, 6, 188, 118, 44, 11, 61, 251, 136, 53, 189, 179, 173, 160, 188, 156, 175, 6, 61, 173, 168, 163, 188, 218, 219, 174, 59, 165, 150, 45, 61, 32, 152, 18, 61, 118, 82, 52, 187, 189, 68, 92, 189, 236, 134, 51, 189, 234, 63, 122, 188, 147, 26, 182, 60, 133, 249, 185, 188, 226, 68, 194, 60, 49, 6, 201, 188, 200, 143, 12, 60, 78, 125, 135, 60, 46, 76, 46, 61, 166, 35, 209, 188, 144, 52, 140, 60, 249, 107, 56, 189, 98, 34, 8, 61, 194, 154, 90, 61, 211, 252, 50, 188, 20, 115, 71, 59, 243, 95, 14, 189, 112, 10, 194, 60, 83, 112, 64, 59, 11, 184, 35, 61, 58, 32, 3, 61, 177, 172, 3, 60, 131, 187, 255, 187, 202, 46, 16, 187, 129, 155, 173, 60, 47, 69, 249, 60, 25, 171, 95, 60, 229, 105, 186, 60, 194, 35, 171, 188, 111, 152, 205, 188, 152, 30, 42, 189, 98, 239, 91, 188, 119, 193, 54, 61, 241, 92, 18, 61, 237, 21, 151, 60, 162, 64, 65, 187, 101, 113, 190, 187, 75, 193, 33, 189, 98, 114, 68, 189, 163, 145, 45, 189, 203, 173, 39, 189, 108, 202, 194, 188, 81, 185, 14, 60, 249, 48, 140, 189, 113, 180, 247, 188, 0, 186, 206, 59, 3, 55, 179, 188, 28, 141, 11, 61, 56, 178, 158, 60, 172, 145, 96, 187, 72, 7, 246, 60, 6, 88, 183, 187, 142, 61, 12, 61, 159, 205, 71, 61, 75, 159, 117, 187, 48, 190, 201, 60, 24, 41, 62, 60, 95, 215, 199, 60, 161, 22, 102, 188, 30, 163, 84, 189, 224, 77, 255, 188, 53, 191, 224, 188, 247, 126, 37, 188, 229, 4, 133, 188, 230, 219, 47, 60, 238, 169, 12, 189, 55, 150, 251, 188, 172, 71, 97, 61, 66, 1, 9, 61, 104, 149, 41, 189, 17, 54, 10, 188, 179, 9, 86, 61, 228, 145, 53, 61, 237, 205, 229, 188, 201, 113, 58, 59, 244, 38, 10, 61, 20, 113, 221, 60, 150, 167, 239, 187, 128, 96, 105, 188, 100, 59, 219, 57, 99, 47, 47, 188, 147, 143, 48, 188, 126, 56, 146, 188, 198, 183, 56, 61, 185, 205, 191, 60, 107, 109, 121, 188, 171, 145, 69, 60, 142, 192, 25, 60, 202, 184, 46, 60, 229, 70, 13, 189, 27, 93, 174, 188, 232, 59, 51, 60, 30, 210, 7, 189, 246, 227, 151, 188, 3, 39, 218, 187, 235, 68, 223, 188, 145, 8, 221, 60, 88, 109, 198, 60, 61, 139, 8, 189, 157, 226, 78, 189, 74, 217, 45, 189, 80, 160, 23, 189, 187, 197, 137, 60, 116, 188, 4, 188, 15, 221, 19, 189, 76, 81, 224, 60, 225, 140, 222, 188, 130, 62, 30, 61, 62, 255, 23, 61, 237, 98, 184, 59, 154, 175, 202, 57, 64, 6, 164, 188, 52, 31, 119, 60, 129, 229, 218, 188, 27, 180, 73, 61, 170, 206, 215, 60, 226, 245, 172, 58, 204, 127, 4, 189, 110, 50, 187, 60, 188, 151, 137, 187, 98, 222, 41, 188, 23, 215, 117, 188, 123, 184, 213, 60, 162, 205, 30, 189, 88, 255, 245, 183, 121, 53, 106, 189, 176, 123, 44, 189, 215, 12, 27, 189, 177, 239, 26, 61, 50, 30, 109, 189, 37, 99, 99, 189, 112, 131, 193, 188, 49, 196, 18, 187, 181, 252, 205, 60, 144, 5, 50, 188, 238, 215, 136, 189, 210, 250, 94, 59, 83, 63, 234, 60, 255, 3, 141, 189, 213, 106, 226, 188, 54, 147, 33, 189, 166, 240, 31, 61, 223, 166, 137, 189, 167, 1, 108, 59, 149, 17, 158, 60, 3, 208, 64, 188, 251, 230, 13, 189, 20, 63, 18, 188, 64, 235, 100, 61, 155, 6, 222, 188, 89, 20, 166, 188, 180, 239, 176, 60, 255, 5, 139, 188, 89, 204, 252, 188, 248, 1, 40, 61, 86, 252, 67, 61, 160, 10, 195, 60, 137, 228, 222, 188, 21, 221, 95, 189, 185, 66, 91, 189, 173, 234, 89, 189, 13, 93, 87, 188, 179, 61, 124, 189, 249, 137, 234, 59, 195, 155, 27, 61, 47, 127, 230, 188, 89, 135, 6, 189, 47, 164, 246, 188, 51, 145, 185, 187, 222, 81, 82, 187, 29, 139, 38, 61, 105, 221, 253, 60, 112, 61, 134, 189, 241, 40, 30, 61, 51, 18, 241, 187, 152, 108, 118, 60, 87, 118, 10, 61, 93, 55, 107, 60, 199, 116, 70, 189, 47, 134, 143, 59, 96, 212, 187, 187, 130, 160, 59, 188, 49, 253, 45, 58, 248, 45, 202, 188, 86, 244, 62, 61, 99, 73, 180, 60, 251, 153, 227, 187, 231, 210, 155, 60, 147, 197, 13, 61, 229, 240, 35, 188, 251, 84, 95, 187, 99, 85, 15, 61, 45, 204, 139, 59, 16, 228, 227, 188, 227, 17, 241, 188, 8, 222, 76, 189, 155, 162, 60, 60, 157, 46, 184, 60, 111, 46, 213, 187, 158, 244, 96, 189, 185, 28, 164, 59, 178, 138, 37, 61, 228, 154, 100, 187, 156, 198, 199, 58, 164, 80, 150, 188, 204, 94, 38, 61, 248, 120, 63, 189, 78, 27, 142, 60, 56, 126, 131, 189, 235, 35, 27, 61, 237, 78, 92, 188, 171, 144, 33, 61, 150, 77, 23, 188, 218, 125, 147, 187, 187, 197, 19, 60, 83, 123, 53, 189, 87, 40, 108, 189, 30, 75, 101, 189, 115, 172, 80, 59, 153, 72, 51, 61, 99, 216, 20, 189, 223, 157, 76, 61, 67, 86, 1, 61, 159, 24, 128, 60, 109, 101, 14, 60, 32, 162, 94, 189, 190, 226, 8, 60, 235, 78, 229, 187, 186, 134, 17, 60, 140, 132, 60, 189, 90, 154, 104, 60, 5, 87, 193, 188, 73, 247, 84, 189, 64, 203, 52, 187, 50, 74, 239, 60, 80, 23, 43, 189, 248, 92, 9, 189, 217, 45, 136, 60, 250, 221, 178, 188, 1, 101, 18, 61, 71, 136, 43, 189, 139, 104, 74, 189, 76, 153, 37, 59, 235, 183, 33, 189, 136, 86, 133, 60, 102, 93, 183, 59, 5, 220, 200, 187, 136, 92, 250, 58, 2, 13, 53, 61, 109, 116, 24, 189, 24, 74, 5, 189, 245, 41, 220, 187, 191, 201, 3, 186, 46, 132, 68, 60, 98, 85, 207, 188, 72, 147, 94, 189, 115, 138, 47, 61, 25, 255, 209, 60, 22, 219, 27, 61, 71, 76, 71, 61, 203, 31, 54, 61, 98, 201, 121, 60, 208, 98, 148, 59, 88, 77, 155, 188, 70, 202, 25, 59, 78, 48, 26, 61, 150, 169, 70, 60, 184, 48, 57, 189, 203, 106, 229, 187, 225, 15, 229, 60, 126, 236, 62, 188, 182, 187, 215, 60, 225, 33, 58, 59, 228, 111, 54, 61, 193, 229, 65, 61, 59, 202, 78, 61, 208, 161, 42, 186, 27, 139, 103, 188, 25, 91, 35, 61, 59, 203, 193, 60, 148, 199, 96, 189, 36, 89, 19, 61, 253, 58, 127, 188, 255, 37, 144, 188, 50, 95, 28, 186, 15, 55, 200, 59, 251, 164, 141, 60, 227, 229, 52, 189, 224, 36, 29, 60, 60, 81, 141, 187, 27, 244, 223, 188, 250, 105, 218, 188, 134, 145, 189, 60, 157, 12, 46, 61, 126, 197, 218, 187, 131, 44, 31, 61, 179, 129, 204, 59, 139, 222, 248, 188, 175, 8, 129, 188, 205, 63, 218, 58, 202, 210, 236, 60, 64, 45, 15, 61, 20, 167, 13, 189, 123, 167, 54, 60, 237, 64, 166, 60, 173, 164, 10, 189, 132, 114, 236, 188, 27, 208, 255, 188, 4, 254, 239, 188, 59, 59, 44, 61, 59, 249, 190, 60, 186, 142, 107, 61, 137, 40, 166, 60, 88, 145, 167, 188, 63, 156, 76, 61, 205, 107, 25, 189, 162, 119, 93, 59, 144, 15, 34, 189, 60, 178, 80, 61, 32, 156, 23, 189, 105, 59, 60, 61, 232, 28, 2, 189, 128, 232, 235, 60, 42, 45, 12, 189, 164, 58, 71, 189, 223, 73, 180, 60, 55, 220, 223, 188, 20, 182, 167, 60, 174, 14, 89, 188, 249, 35, 239, 60, 41, 12, 164, 59, 91, 230, 215, 188, 132, 161, 100, 187, 38, 164, 89, 61, 195, 206, 6, 189, 210, 51, 139, 60, 31, 106, 35, 61, 200, 137, 2, 188, 72, 230, 131, 61, 38, 70, 164, 60, 158, 189, 148, 188, 242, 203, 111, 61, 176, 200, 25, 187, 65, 61, 24, 189, 187, 88, 123, 61, 25, 5, 255, 185, 101, 59, 5, 61, 197, 171, 144, 188, 41, 163, 10, 189, 225, 217, 4, 189, 224, 60, 16, 61, 137, 132, 2, 59, 109, 254, 221, 59, 153, 220, 246, 60, 74, 243, 145, 60, 28, 70, 175, 60, 145, 154, 169, 60, 250, 111, 103, 61, 114, 174, 178, 60, 137, 98, 90, 189, 94, 139, 41, 60, 140, 6, 135, 189, 1, 116, 60, 189, 15, 208, 231, 60, 66, 5, 179, 60, 85, 225, 142, 57, 254, 217, 87, 188, 4, 117, 35, 61, 201, 223, 192, 188, 78, 30, 253, 188, 88, 194, 55, 61, 79, 38, 165, 60, 79, 129, 17, 61, 206, 63, 49, 61, 241, 76, 222, 60, 131, 128, 4, 189, 127, 41, 140, 59, 156, 251, 152, 60, 118, 36, 36, 189, 174, 146, 81, 61, 161, 44, 39, 61, 65, 88, 19, 189, 24, 175, 77, 189, 206, 162, 46, 189, 254, 40, 46, 189, 50, 203, 9, 189, 229, 138, 15, 61, 42, 223, 237, 188, 201, 253, 109, 186, 49, 225, 125, 188, 141, 52, 211, 60, 42, 140, 34, 189, 12, 188, 189, 59, 42, 215, 228, 188, 102, 145, 62, 61, 2, 58, 219, 188, 189, 56, 110, 187, 224, 128, 95, 60, 50, 6, 103, 188, 36, 141, 93, 189, 0, 50, 61, 189, 208, 172, 68, 189, 8, 130, 241, 188, 139, 117, 90, 189, 160, 136, 22, 189, 5, 254, 159, 60, 63, 249, 142, 187, 213, 157, 150, 188, 159, 116, 17, 61, 55, 105, 35, 188, 54, 61, 207, 60, 240, 216, 155, 60, 139, 131, 219, 188, 255, 232, 165, 60, 198, 253, 140, 187, 64, 184, 169, 188, 200, 143, 185, 58, 250, 105, 149, 60, 212, 113, 247, 188, 12, 191, 229, 59, 159, 11, 91, 60, 225, 217, 190, 188, 107, 34, 149, 188, 5, 184, 26, 187, 128, 88, 208, 188, 97, 58, 223, 188, 171, 184, 38, 61, 157, 101, 199, 60, 185, 44, 45, 188, 12, 198, 7, 60, 157, 198, 20, 61, 43, 183, 12, 61, 129, 154, 95, 189, 136, 255, 239, 60, 28, 196, 55, 60, 52, 215, 7, 61, 131, 51, 5, 61, 187, 41, 208, 60, 68, 127, 242, 188, 166, 136, 60, 188, 70, 140, 148, 188, 119, 55, 147, 188, 117, 134, 17, 61, 87, 28, 70, 61, 146, 53, 245, 60, 185, 83, 153, 60, 28, 181, 130, 188, 125, 169, 130, 60, 77, 189, 45, 189, 195, 44, 104, 60, 255, 204, 244, 188, 157, 246, 113, 61, 20, 237, 209, 188, 114, 210, 203, 60, 242, 245, 119, 61, 242, 209, 26, 189, 58, 153, 60, 188, 221, 26, 174, 188, 21, 131, 15, 188, 74, 116, 75, 61, 173, 247, 229, 60, 249, 70, 220, 60, 94, 34, 92, 61, 241, 106, 118, 61, 113, 18, 198, 60, 180, 17, 5, 61, 90, 143, 195, 188, 148, 18, 141, 187, 43, 13, 26, 189, 193, 13, 35, 189, 251, 191, 187, 188, 237, 156, 209, 60, 107, 253, 73, 188, 92, 42, 50, 189, 122, 85, 110, 60, 105, 52, 47, 61, 144, 48, 91, 60, 77, 110, 244, 60, 227, 224, 1, 189, 187, 201, 212, 60, 162, 26, 97, 61, 48, 86, 250, 188, 109, 88, 221, 188, 158, 95, 74, 61, 251, 204, 212, 187, 104, 131, 155, 60, 53, 76, 237, 188, 226, 204, 183, 57, 132, 78, 159, 58, 17, 231, 241, 60, 168, 147, 21, 61, 6, 57, 213, 60, 185, 96, 7, 189, 114, 74, 161, 188, 49, 153, 31, 189, 200, 61, 29, 189, 0, 32, 216, 188, 110, 241, 43, 189, 173, 57, 17, 189, 193, 121, 133, 187, 15, 98, 196, 60, 239, 150, 41, 61, 231, 140, 231, 60, 183, 248, 120, 59, 193, 144, 147, 60, 169, 133, 23, 189, 170, 250, 209, 188, 182, 204, 170, 187, 223, 147, 115, 188, 138, 243, 5, 189, 159, 168, 215, 187, 205, 119, 92, 61, 110, 175, 42, 189, 153, 99, 61, 189, 42, 136, 176, 188, 62, 209, 161, 60, 184, 200, 24, 188, 213, 69, 159, 61, 47, 217, 31, 61, 216, 165, 236, 59, 210, 145, 74, 189, 69, 66, 24, 189, 180, 85, 145, 188, 33, 237, 165, 188, 155, 199, 241, 188, 52, 56, 9, 188, 237, 19, 231, 188, 71, 237, 0, 61, 226, 118, 192, 188, 118, 26, 222, 60, 15, 145, 76, 61, 62, 129, 253, 187, 193, 231, 136, 189, 252, 192, 64, 61, 100, 113, 7, 61, 122, 214, 13, 189, 58, 71, 141, 60, 85, 173, 227, 188, 228, 135, 17, 188, 179, 94, 33, 188, 98, 76, 222, 188, 239, 84, 45, 60, 34, 248, 93, 61, 32, 126, 255, 59, 208, 239, 168, 187, 134, 88, 124, 58, 21, 34, 166, 188, 228, 83, 252, 60, 180, 74, 5, 189, 225, 79, 191, 188, 10, 56, 40, 189, 0, 133, 151, 60, 214, 29, 53, 189, 194, 99, 28, 189, 143, 202, 171, 188, 167, 149, 199, 59, 41, 178, 111, 188, 168, 33, 29, 189, 141, 245, 2, 189, 21, 21, 52, 61, 46, 230, 103, 187, 105, 128, 22, 189, 112, 75, 75, 189, 86, 110, 144, 188, 99, 160, 249, 186, 70, 105, 193, 60, 188, 201, 194, 60, 14, 92, 32, 61, 48, 182, 142, 60, 54, 157, 162, 60, 211, 25, 120, 60, 143, 80, 79, 59, 104, 23, 180, 188, 6, 41, 14, 61, 142, 139, 90, 189, 173, 220, 142, 188, 77, 206, 231, 187, 203, 93, 161, 187, 49, 125, 152, 60, 36, 238, 182, 188, 176, 200, 39, 61, 122, 198, 119, 189, 243, 153, 131, 188, 63, 156, 169, 60, 251, 102, 78, 61, 21, 236, 119, 58, 86, 23, 234, 60, 14, 240, 35, 189, 155, 35, 8, 61, 122, 38, 216, 58, 69, 42, 179, 188, 204, 16, 26, 60, 52, 136, 146, 59, 192, 79, 68, 189, 228, 204, 22, 189, 101, 214, 116, 60, 178, 104, 92, 189, 93, 187, 181, 60, 16, 177, 25, 189, 192, 49, 41, 58, 182, 136, 72, 189, 248, 210, 4, 189, 155, 219, 58, 188, 243, 180, 181, 59, 73, 26, 36, 189, 166, 165, 81, 61, 16, 6, 225, 60, 45, 243, 187, 60, 97, 25, 10, 189, 69, 50, 184, 60, 30, 243, 48, 61, 217, 138, 183, 188, 148, 82, 217, 60, 6, 229, 1, 189, 137, 22, 128, 187, 128, 118, 238, 60, 94, 49, 21, 189, 78, 142, 5, 189, 139, 99, 139, 60, 219, 176, 52, 189, 150, 201, 232, 57, 229, 229, 30, 189, 159, 219, 250, 188, 91, 23, 79, 189, 125, 211, 35, 60, 196, 199, 7, 61, 14, 167, 154, 188, 100, 194, 65, 189, 121, 235, 195, 60, 149, 129, 32, 189, 14, 72, 4, 188, 76, 117, 185, 187, 32, 135, 65, 189, 181, 190, 80, 61, 241, 42, 48, 189, 14, 46, 241, 60, 217, 254, 239, 187, 72, 224, 204, 58, 206, 151, 42, 61, 13, 237, 55, 189, 237, 53, 208, 60, 50, 137, 234, 188, 237, 117, 234, 60, 109, 88, 30, 61, 183, 48, 99, 189, 17, 6, 221, 59, 21, 111, 148, 188, 160, 191, 16, 189, 90, 21, 140, 61, 38, 133, 74, 61, 22, 130, 82, 189, 245, 183, 201, 59, 141, 166, 180, 60, 197, 183, 55, 59, 42, 130, 120, 61, 92, 189, 59, 189, 138, 247, 4, 189, 142, 198, 249, 58, 244, 138, 180, 188, 138, 199, 54, 189, 172, 184, 95, 189, 245, 115, 223, 188, 121, 185, 101, 189, 29, 13, 145, 60, 148, 194, 94, 187, 99, 202, 40, 189, 77, 79, 81, 60, 69, 27, 141, 188, 82, 190, 195, 188, 24, 233, 69, 189, 114, 54, 31, 187, 190, 238, 27, 60, 68, 132, 5, 189, 66, 101, 106, 61, 198, 191, 6, 61, 212, 79, 161, 60, 87, 157, 183, 60, 167, 180, 200, 187, 7, 129, 234, 187, 33, 216, 187, 188, 65, 108, 19, 61, 146, 208, 153, 60, 87, 240, 209, 188, 179, 230, 12, 59, 69, 250, 55, 60, 163, 58, 75, 189, 104, 202, 26, 189, 147, 187, 233, 187, 95, 89, 40, 61, 246, 23, 33, 60, 137, 240, 37, 189, 209, 187, 67, 61, 133, 63, 136, 187, 183, 49, 226, 187, 22, 171, 164, 188, 231, 161, 204, 60, 35, 230, 145, 188, 100, 11, 187, 59, 246, 214, 79, 61, 176, 163, 249, 60, 166, 35, 184, 188, 83, 35, 26, 61, 118, 252, 84, 188, 128, 116, 51, 189, 102, 151, 1, 189, 38, 69, 78, 61, 122, 177, 59, 59, 63, 211, 65, 60, 84, 104, 0, 188, 244, 75, 251, 60, 254, 182, 141, 188, 150, 113, 60, 60, 244, 113, 221, 186, 24, 190, 18, 61, 207, 0, 188, 60, 166, 115, 88, 58, 208, 177, 135, 60, 106, 214, 244, 59, 236, 14, 13, 189, 250, 192, 62, 188, 121, 246, 63, 187, 86, 7, 245, 60, 191, 184, 42, 189, 1, 8, 193, 60, 135, 12, 122, 189, 24, 206, 134, 61, 17, 34, 99, 189, 230, 224, 44, 189, 234, 229, 24, 189, 16, 90, 185, 187, 198, 159, 76, 61, 218, 190, 97, 59, 43, 16, 67, 189, 232, 130, 191, 59, 145, 105, 34, 189, 131, 137, 134, 58, 110, 170, 94, 188, 223, 49, 223, 188, 27, 108, 179, 188, 178, 214, 44, 61, 127, 47, 73, 60, 164, 80, 159, 188, 159, 97, 49, 60, 136, 107, 8, 189, 170, 81, 109, 188, 173, 172, 29, 189, 87, 136, 55, 189, 69, 215, 236, 188, 89, 37, 58, 189, 26, 214, 24, 59, 166, 54, 117, 189, 48, 191, 117, 189, 36, 61, 75, 61, 15, 245, 163, 188, 22, 20, 190, 188, 180, 96, 3, 189, 78, 50, 0, 188, 69, 59, 243, 188, 69, 116, 165, 59, 120, 168, 92, 188, 13, 92, 153, 188, 203, 12, 4, 189, 191, 255, 8, 61, 32, 240, 20, 189, 241, 93, 212, 58, 229, 4, 226, 188, 44, 185, 183, 59, 39, 151, 142, 188, 8, 190, 247, 60, 130, 38, 147, 60, 82, 86, 83, 188, 177, 51, 31, 187, 122, 10, 23, 61, 67, 162, 8, 61, 204, 52, 91, 188, 138, 197, 5, 61, 135, 112, 62, 189, 241, 64, 45, 61, 26, 67, 96, 60, 169, 209, 2, 189, 94, 225, 197, 59, 13, 228, 219, 188, 201, 157, 12, 189, 227, 27, 98, 59, 12, 55, 131, 189, 32, 180, 233, 188, 223, 33, 138, 189, 202, 110, 20, 61, 251, 103, 196, 188, 89, 10, 235, 188, 125, 170, 21, 61, 247, 182, 18, 187, 144, 56, 148, 60, 243, 7, 35, 60, 179, 152, 230, 188, 150, 49, 9, 59, 175, 28, 30, 188, 203, 202, 41, 61, 15, 228, 129, 60, 56, 193, 146, 60, 138, 133, 80, 189, 54, 4, 39, 61, 92, 218, 60, 61, 137, 214, 54, 61, 184, 57, 132, 59, 20, 9, 40, 188, 241, 211, 39, 189, 126, 116, 40, 61, 179, 1, 89, 189, 16, 157, 24, 61, 225, 120, 21, 189, 42, 51, 187, 188, 140, 75, 88, 188, 48, 179, 67, 189, 144, 233, 33, 189, 184, 210, 234, 188, 212, 165, 33, 189, 24, 178, 0, 61, 64, 178, 1, 61, 96, 164, 212, 60, 6, 243, 209, 60, 51, 94, 210, 188, 107, 219, 148, 187, 171, 249, 6, 189, 194, 148, 65, 189, 43, 53, 13, 60, 252, 248, 122, 60, 68, 151, 84, 188, 102, 31, 121, 60, 185, 111, 127, 188, 72, 1, 0, 61, 34, 135, 197, 60, 179, 197, 135, 60, 121, 131, 214, 60, 103, 213, 60, 188, 239, 5, 215, 188, 29, 71, 53, 61, 241, 25, 11, 61, 216, 86, 82, 61, 12, 179, 42, 188, 84, 189, 110, 61, 208, 