#include "model.hpp"

alignas(8) const unsigned char model_tflite[] = {
    28, 0, 0, 0, 84, 70, 76, 51, 20, 0, 32, 0, 28, 0, 24, 0, 20, 0, 16, 0, 12, 0, 0, 0, 8, 0, 4, 0, 20, 0, 0, 0, 28, 0, 0, 0, 140, 0, 0, 0, 228, 0, 0, 0, 124, 75, 4, 0, 140, 75, 4, 0, 96, 117, 4, 0, 3, 0, 0, 0, 1, 0, 0, 0, 4, 0, 0, 0, 178, 175, 251, 255, 12, 0, 0, 0, 28, 0, 0, 0, 56, 0, 0, 0, 15, 0, 0, 0, 115, 101, 114, 118, 105, 110, 103, 95, 100, 101, 102, 97, 117, 108, 116, 0, 1, 0, 0, 0, 4, 0, 0, 0, 144, 255, 255, 255, 47, 0, 0, 0, 4, 0, 0, 0, 6, 0, 0, 0, 111, 117, 116, 112, 117, 116, 0, 0, 1, 0, 0, 0, 4, 0, 0, 0, 182, 175, 251, 255, 4, 0, 0, 0, 17, 0, 0, 0, 97, 100, 100, 95, 99, 104, 97, 110, 110, 101, 108, 95, 105, 110, 112, 117, 116, 0, 0, 0, 2, 0, 0, 0, 52, 0, 0, 0, 4, 0, 0, 0, 220, 255, 255, 255, 50, 0, 0, 0, 4, 0, 0, 0, 19, 0, 0, 0, 67, 79, 78, 86, 69, 82, 83, 73, 79, 78, 95, 77, 69, 84, 65, 68, 65, 84, 65, 0, 8, 0, 12, 0, 8, 0, 4, 0, 8, 0, 0, 0, 49, 0, 0, 0, 4, 0, 0, 0, 19, 0, 0, 0, 109, 105, 110, 95, 114, 117, 110, 116, 105, 109, 101, 95, 118, 101, 114, 115, 105, 111, 110, 0, 51, 0, 0, 0, 148, 74, 4, 0, 140, 74, 4, 0, 120, 74, 4, 0, 100, 74, 4, 0, 80, 74, 4, 0, 72, 74, 4, 0, 52, 74, 4, 0, 24, 74, 4, 0, 4, 74, 4, 0, 232, 73, 4, 0, 204, 73, 4, 0, 176, 73, 4, 0, 148, 73, 4, 0, 124, 73, 4, 0, 100, 73, 4, 0, 212, 72, 4, 0, 196, 71, 4, 0, 180, 95, 0, 0, 100, 95, 0, 0, 84, 77, 0, 0, 196, 76, 0, 0, 180, 4, 0, 0, 164, 3, 0, 0, 84, 1, 0, 0, 76, 1, 0, 0, 68, 1, 0, 0, 60, 1, 0, 0, 52, 1, 0, 0, 44, 1, 0, 0, 36, 1, 0, 0, 28, 1, 0, 0, 20, 1, 0, 0, 12, 1, 0, 0, 4, 1, 0, 0, 252, 0, 0, 0, 244, 0, 0, 0, 236, 0, 0, 0, 228, 0, 0, 0, 220, 0, 0, 0, 212, 0, 0, 0, 204, 0, 0, 0, 196, 0, 0, 0, 188, 0, 0, 0, 180, 0, 0, 0, 172, 0, 0, 0, 164, 0, 0, 0, 156, 0, 0, 0, 148, 0, 0, 0, 140, 0, 0, 0, 108, 0, 0, 0, 4, 0, 0, 0, 2, 177, 251, 255, 4, 0, 0, 0, 88, 0, 0, 0, 12, 0, 0, 0, 8, 0, 14, 0, 8, 0, 4, 0, 8, 0, 0, 0, 16, 0, 0, 0, 40, 0, 0, 0, 0, 0, 6, 0, 8, 0, 4, 0, 6, 0, 0, 0, 4, 0, 0, 0, 1, 0, 0, 0, 235, 3, 0, 0, 0, 0, 10, 0, 16, 0, 12, 0, 8, 0, 4, 0, 10, 0, 0, 0, 2, 0, 0, 0, 2, 0, 0, 0, 4, 0, 0, 0, 6, 0, 0, 0, 50, 46, 49, 48, 46, 48, 0, 0, 102, 177, 251, 255, 4, 0, 0, 0, 16, 0, 0, 0, 49, 46, 49, 52, 46, 48, 0, 0, 0, 0, 0, 0, 0, 0, 0, 0, 176, 141, 251, 255, 180, 141, 251, 255, 184, 141, 251, 255, 188, 141, 251, 255, 192, 141, 251, 255, 196, 141, 251, 255, 200, 141, 251, 255, 204, 141, 251, 255, 208, 141, 251, 255, 212, 141, 251, 255, 216, 141, 251, 255, 220, 141, 251, 255, 224, 141, 251, 255, 228, 141, 251, 255, 232, 141, 251, 255, 236, 141, 251, 255, 240, 141, 251, 255, 244, 141, 251, 255, 248, 141, 251, 255, 252, 141, 251, 255, 0, 142, 251, 255, 4, 142, 251, 255, 8, 142, 251, 255, 12, 142, 251, 255, 16, 142, 251, 255, 230, 177, 251, 255, 4, 0, 0, 0, 64, 2, 0, 0, 127, 74, 114, 161, 174, 156, 192, 231, 229, 71, 45, 114, 70, 247, 75, 26, 127, 218, 211, 59, 125, 94, 202, 103, 93, 240, 129, 102, 105, 253, 43, 73, 231, 127, 223, 88, 224, 78, 38, 87, 34, 29, 63, 121, 127, 45, 39, 115, 193, 84, 94, 189, 105, 127, 149, 80, 46, 239, 192, 129, 207, 54, 81, 250, 141, 182, 73, 109, 255, 17, 11, 127, 42, 169, 242, 99, 165, 16, 74, 86, 129, 169, 168, 10, 221, 168, 150, 222, 129, 31, 255, 127, 119, 10, 172, 222, 116, 58, 53, 20, 149, 245, 204, 37, 188, 247, 127, 84, 76, 127, 224, 178, 100, 240, 47, 232, 52, 129, 26, 150, 155, 151, 23, 116, 1, 205, 14, 10, 127, 212, 199, 134, 86, 199, 194, 197, 115, 188, 193, 127, 224, 160, 124, 203, 74, 56, 250, 166, 224, 200, 20, 129, 129, 13, 91, 52, 129, 208, 15, 110, 67, 149, 19, 233, 53, 129, 239, 182, 227, 237, 189, 36, 203, 135, 129, 145, 227, 99, 16, 33, 191, 39, 105, 189, 129, 6, 37, 68, 60, 222, 27, 140, 129, 135, 200, 29, 97, 0, 191, 105, 70, 248, 196, 150, 127, 101, 217, 146, 54, 165, 26, 49, 156, 106, 129, 188, 135, 58, 99, 107, 232, 174, 213, 60, 127, 208, 180, 218, 1, 105, 241, 15, 222, 129, 91, 219, 38, 184, 138, 235, 216, 127, 13, 129, 208, 184, 121, 239, 162, 39, 176, 251, 163, 215, 92, 233, 178, 127, 132, 65, 133, 20, 32, 134, 139, 66, 92, 72, 237, 129, 120, 175, 217, 139, 59, 127, 227, 141, 232, 35, 31, 193, 173, 241, 90, 20, 129, 13, 136, 171, 61, 243, 236, 142, 192, 248, 129, 21, 152, 55, 127, 170, 86, 111, 200, 135, 81, 29, 15, 86, 127, 100, 197, 164, 69, 237, 92, 75, 146, 127, 29, 1, 195, 2, 212, 186, 158, 53, 175, 214, 224, 129, 38, 226, 15, 246, 212, 127, 170, 253, 54, 246, 129, 129, 239, 196, 41, 144, 164, 41, 213, 83, 105, 121, 127, 225, 90, 97, 106, 54, 81, 31, 91, 125, 48, 178, 0, 127, 201, 123, 192, 163, 146, 58, 127, 113, 28, 102, 1, 127, 251, 105, 31, 92, 47, 83, 58, 255, 30, 182, 28, 253, 127, 120, 26, 93, 127, 3, 65, 26, 95, 229, 35, 42, 58, 208, 193, 154, 19, 246, 211, 181, 129, 15, 218, 75, 88, 180, 130, 230, 127, 73, 6, 113, 88, 90, 47, 197, 49, 98, 129, 20, 142, 52, 255, 246, 84, 11, 50, 129, 168, 1, 223, 41, 43, 129, 97, 30, 140, 79, 129, 24, 69, 178, 235, 223, 211, 136, 139, 184, 134, 21, 127, 64, 38, 53, 116, 95, 78, 127, 150, 203, 238, 224, 34, 160, 26, 6, 115, 239, 192, 90, 129, 82, 3, 88, 139, 129, 226, 99, 246, 60, 48, 146, 36, 147, 132, 6, 129, 148, 171, 26, 135, 173, 66, 232, 39, 58, 185, 55, 167, 127, 167, 161, 156, 139, 129, 196, 23, 80, 40, 91, 160, 143, 225, 243, 62, 182, 129, 37, 30, 13, 127, 223, 147, 3, 148, 125, 206, 92, 190, 145, 208, 201, 229, 129, 215, 247, 10, 127, 105, 206, 109, 76, 109, 195, 108, 11, 58, 245, 227, 79, 151, 65, 75, 206, 127, 170, 16, 6, 186, 99, 205, 220, 103, 129, 50, 180, 251, 255, 4, 0, 0, 0, 0, 1, 0, 0, 84, 241, 255, 255, 47, 245, 255, 255, 109, 233, 255, 255, 190, 6, 0, 0, 57, 3, 0, 0, 29, 5, 0, 0, 5, 249, 255, 255, 248, 237, 255, 255, 238, 254, 255, 255, 235, 249, 255, 255, 164, 3, 0, 0, 20, 236, 255, 255, 41, 2, 0, 0, 156, 239, 255, 255, 121, 247, 255, 255, 254, 0, 0, 0, 97, 254, 255, 255, 167, 250, 255, 255, 109, 245, 255, 255, 159, 239, 255, 255, 187, 241, 255, 255, 169, 255, 255, 255, 26, 246, 255, 255, 223, 255, 255, 255, 212, 250, 255, 255, 151, 242, 255, 255, 243, 247, 255, 255, 1, 249, 255, 255, 88, 5, 0, 0, 216, 241, 255, 255, 27, 248, 255, 255, 25, 249, 255, 255, 180, 4, 0, 0, 68, 251, 255, 255, 182, 249, 255, 255, 110, 247, 255, 255, 171, 0, 0, 0, 140, 1, 0, 0, 240, 0, 0, 0, 150, 5, 0, 0, 62, 2, 0, 0, 5, 239, 255, 255, 206, 249, 255, 255, 10, 246, 255, 255, 254, 6, 0, 0, 157, 0, 0, 0, 163, 240, 255, 255, 190, 238, 255, 255, 0, 253, 255, 255, 10, 3, 0, 0, 128, 246, 255, 255, 16, 240, 255, 255, 0, 239, 255, 255, 134, 247, 255, 255, 185, 245, 255, 255, 138, 4, 0, 0, 180, 250, 255, 255, 229, 254, 255, 255, 226, 251, 255, 255, 109, 243, 255, 255, 100, 5, 0, 0, 130, 255, 255, 255, 115, 3, 0, 0, 48, 2, 0, 0, 62, 181, 251, 255, 4, 0, 0, 0, 0, 72, 0, 0, 194, 207, 153, 64, 191, 185, 54, 244, 174, 241, 44, 6, 18, 48, 200, 136, 8, 229, 239, 57, 211, 202, 75, 43, 65, 3, 252, 249, 148, 214, 198, 28, 145, 192, 2, 200, 159, 145, 145, 65, 14, 217, 48, 243, 184, 54, 247, 162, 31, 230, 238, 17, 29, 51, 154, 147, 208, 42, 255, 73, 220, 192, 225, 133, 179, 245, 45, 14, 245, 214, 184, 12, 189, 177, 210, 197, 250, 204, 6, 235, 211, 8, 205, 34, 8, 53, 223, 63, 22, 208, 209, 235, 188, 54, 245, 219, 240, 23, 1, 213, 220, 212, 152, 65, 63, 86, 41, 192, 248, 235, 179, 243, 35, 230, 209, 37, 200, 211, 169, 25, 222, 176, 162, 22, 27, 184, 20, 11, 203, 11, 215, 194, 211, 25, 248, 36, 181, 195, 204, 241, 197, 58, 154, 189, 158, 48, 240, 245, 231, 67, 163, 233, 20, 182, 65, 185, 211, 242, 27, 28, 168, 221, 223, 42, 150, 24, 22, 213, 189, 213, 48, 77, 214, 143, 181, 13, 172, 179, 17, 227, 243, 68, 13, 11, 44, 18, 20, 40, 21, 68, 73, 136, 189, 222, 220, 1, 229, 187, 70, 73, 41, 19, 75, 193, 213, 196, 164, 53, 15, 188, 39, 60, 203, 32, 201, 41, 79, 162, 254, 33, 216, 151, 10, 253, 45, 8, 67, 246, 27, 182, 197, 255, 76, 250, 205, 242, 40, 24, 249, 208, 25, 10, 174, 1, 173, 4, 63, 184, 243, 209, 239, 38, 45, 0, 212, 253, 174, 27, 244, 221, 31, 247, 248, 180, 173, 51, 8, 227, 220, 67, 5, 247, 151, 63, 155, 239, 45, 204, 245, 69, 231, 252, 63, 182, 59, 220, 244, 240, 253, 11, 74, 247, 183, 16, 2, 68, 190, 7, 72, 174, 38, 62, 178, 27, 5, 229, 0, 210, 247, 186, 238, 183, 192, 156, 228, 183, 172, 203, 233, 225, 214, 6, 33, 85, 0, 207, 45, 168, 186, 248, 72, 6, 68, 27, 24, 200, 202, 59, 208, 170, 4, 207, 17, 178, 216, 48, 204, 172, 255, 35, 172, 201, 165, 212, 195, 185, 177, 247, 162, 36, 254, 214, 44, 37, 242, 17, 201, 20, 213, 3, 174, 46, 220, 46, 228, 38, 28, 69, 21, 63, 219, 251, 72, 172, 38, 222, 26, 185, 255, 49, 78, 30, 150, 210, 18, 21, 222, 209, 227, 172, 209, 5, 224, 185, 12, 172, 200, 224, 183, 64, 241, 244, 26, 217, 247, 220, 250, 253, 14, 196, 199, 233, 14, 228, 194, 238, 190, 226, 176, 209, 69, 62, 194, 11, 243, 212, 28, 70, 233, 22, 32, 176, 11, 217, 159, 169, 22, 21, 242, 204, 24, 74, 247, 66, 58, 240, 69, 217, 173, 221, 182, 63, 181, 11, 48, 246, 225, 16, 25, 22, 71, 227, 64, 232, 37, 18, 68, 197, 16, 195, 18, 59, 43, 49, 171, 248, 139, 254, 34, 204, 202, 218, 215, 131, 234, 68, 74, 13, 172, 30, 222, 221, 39, 216, 158, 216, 129, 22, 138, 71, 20, 207, 91, 228, 70, 233, 224, 8, 64, 240, 156, 245, 236, 186, 23, 20, 216, 182, 220, 234, 64, 46, 188, 24, 3, 3, 51, 245, 89, 31, 157, 218, 49, 250, 194, 17, 7, 41, 151, 209, 158, 190, 42, 155, 215, 55, 195, 222, 201, 29, 78, 194, 235, 205, 61, 189, 61, 174, 166, 236, 161, 10, 2, 20, 251, 240, 163, 230, 94, 249, 48, 63, 207, 206, 22, 4, 248, 86, 199, 62, 69, 180, 62, 237, 30, 78, 4, 242, 217, 171, 51, 172, 88, 26, 254, 238, 242, 197, 45, 202, 87, 61, 153, 235, 195, 94, 9, 8, 76, 78, 110, 45, 219, 232, 173, 73, 238, 241, 186, 193, 49, 211, 174, 239, 243, 82, 167, 16, 18, 20, 15, 82, 241, 53, 29, 229, 239, 225, 219, 250, 60, 76, 189, 66, 7, 67, 248, 234, 193, 199, 227, 236, 238, 233, 243, 40, 215, 183, 199, 229, 165, 237, 147, 81, 211, 194, 144, 250, 18, 116, 215, 72, 93, 232, 204, 206, 233, 2, 39, 249, 199, 59, 222, 243, 33, 18, 77, 238, 191, 13, 172, 81, 62, 55, 86, 85, 3, 223, 2, 85, 44, 255, 97, 21, 75, 23, 76, 18, 93, 30, 160, 24, 46, 225, 177, 4, 211, 0, 56, 65, 233, 22, 55, 208, 139, 22, 158, 185, 209, 224, 248, 203, 217, 92, 98, 76, 103, 23, 199, 4, 46, 253, 28, 206, 198, 44, 218, 16, 220, 129, 197, 152, 207, 227, 191, 50, 188, 205, 77, 69, 198, 188, 5, 49, 38, 32, 203, 180, 242, 218, 229, 196, 175, 50, 169, 69, 215, 26, 77, 228, 7, 203, 248, 7, 10, 211, 22, 44, 251, 202, 32, 185, 73, 48, 5, 45, 153, 61, 96, 28, 12, 48, 19, 243, 182, 82, 231, 254, 222, 251, 238, 60, 73, 172, 209, 154, 147, 47, 154, 224, 230, 230, 83, 209, 188, 68, 218, 6, 181, 58, 78, 210, 38, 232, 82, 190, 57, 249, 188, 236, 59, 248, 89, 218, 61, 33, 17, 4, 23, 189, 195, 17, 160, 49, 18, 253, 66, 192, 216, 201, 185, 52, 32, 59, 46, 242, 65, 218, 4, 225, 52, 206, 8, 230, 198, 240, 171, 163, 65, 170, 203, 170, 156, 42, 235, 219, 204, 57, 1, 103, 219, 34, 27, 13, 251, 172, 59, 27, 192, 33, 200, 224, 183, 225, 194, 187, 191, 223, 208, 224, 192, 85, 215, 255, 46, 205, 38, 72, 141, 61, 211, 230, 188, 43, 185, 13, 18, 37, 96, 4, 56, 2, 9, 7, 246, 244, 6, 56, 250, 34, 1, 197, 82, 86, 63, 82, 215, 89, 81, 9, 68, 253, 196, 199, 205, 11, 224, 219, 94, 22, 222, 184, 254, 55, 2, 204, 235, 242, 164, 66, 31, 193, 44, 244, 18, 181, 180, 146, 230, 45, 233, 15, 130, 83, 58, 50, 205, 54, 44, 236, 24, 175, 12, 80, 199, 150, 63, 3, 243, 50, 19, 48, 214, 15, 12, 212, 250, 222, 8, 226, 206, 87, 87, 150, 247, 8, 199, 220, 18, 247, 33, 32, 205, 218, 213, 244, 61, 20, 91, 190, 215, 6, 66, 203, 89, 181, 190, 34, 61, 226, 88, 39, 153, 181, 249, 205, 141, 31, 35, 3, 200, 16, 175, 87, 230, 90, 224, 202, 5, 184, 3, 252, 192, 50, 28, 198, 41, 6, 77, 191, 34, 165, 194, 227, 249, 63, 116, 36, 21, 229, 18, 25, 121, 86, 182, 26, 214, 20, 20, 16, 193, 21, 244, 70, 192, 46, 56, 97, 44, 83, 205, 185, 242, 15, 14, 185, 19, 208, 48, 170, 179, 205, 24, 7, 51, 44, 41, 74, 80, 238, 72, 63, 227, 137, 173, 83, 164, 89, 159, 14, 206, 254, 209, 238, 23, 85, 162, 30, 195, 101, 22, 153, 237, 243, 250, 234, 169, 195, 255, 189, 88, 4, 189, 226, 93, 80, 61, 41, 44, 18, 209, 139, 249, 95, 65, 50, 94, 238, 194, 154, 97, 146, 48, 69, 81, 10, 181, 222, 3, 255, 97, 18, 144, 227, 87, 64, 60, 81, 5, 164, 81, 99, 14, 165, 216, 87, 239, 175, 202, 13, 139, 72, 214, 217, 11, 57, 185, 88, 244, 250, 194, 216, 11, 138, 32, 49, 38, 51, 96, 79, 34, 254, 24, 240, 190, 167, 153, 147, 196, 62, 179, 22, 95, 22, 31, 201, 174, 203, 145, 72, 215, 169, 62, 252, 75, 185, 185, 235, 38, 155, 248, 238, 96, 99, 205, 196, 162, 142, 186, 55, 84, 35, 213, 154, 184, 236, 204, 214, 3, 10, 204, 201, 92, 3, 253, 154, 199, 229, 85, 214, 210, 2, 51, 37, 198, 163, 184, 138, 152, 250, 243, 52, 178, 213, 181, 33, 195, 157, 232, 232, 11, 0, 206, 75, 235, 198, 168, 220, 183, 48, 242, 35, 188, 162, 229, 24, 169, 164, 85, 53, 7, 7, 100, 190, 88, 187, 4, 92, 13, 173, 45, 250, 88, 23, 67, 229, 17, 54, 203, 45, 38, 8, 67, 208, 238, 145, 146, 175, 103, 32, 241, 34, 219, 154, 194, 199, 168, 174, 154, 72, 204, 200, 80, 90, 184, 99, 150, 159, 8, 10, 97, 37, 209, 100, 184, 39, 33, 210, 211, 224, 83, 255, 242, 159, 5, 216, 67, 161, 9, 40, 43, 187, 222, 173, 91, 143, 59, 167, 17, 76, 32, 192, 69, 187, 209, 245, 90, 217, 148, 219, 164, 50, 143, 206, 249, 60, 207, 83, 200, 169, 244, 231, 176, 65, 151, 188, 196, 47, 166, 3, 65, 16, 84, 236, 93, 243, 161, 209, 192, 173, 203, 79, 194, 82, 179, 142, 165, 236, 234, 41, 152, 37, 146, 166, 165, 96, 244, 3, 69, 136, 231, 77, 33, 50, 27, 232, 232, 180, 24, 185, 200, 177, 87, 160, 154, 41, 33, 152, 197, 212, 134, 23, 111, 154, 220, 231, 205, 63, 253, 238, 46, 166, 14, 169, 90, 91, 255, 28, 244, 106, 210, 55, 57, 179, 200, 206, 95, 83, 47, 246, 1, 212, 155, 246, 191, 157, 197, 64, 156, 21, 155, 235, 23, 168, 95, 22, 167, 159, 10, 89, 115, 229, 30, 31, 11, 70, 35, 44, 180, 141, 12, 221, 254, 136, 68, 137, 169, 167, 222, 65, 148, 14, 50, 231, 47, 93, 73, 240, 243, 85, 23, 190, 144, 7, 77, 210, 244, 98, 225, 35, 164, 166, 227, 81, 57, 194, 210, 164, 243, 43, 253, 65, 160, 237, 40, 216, 184, 183, 41, 229, 27, 105, 245, 101, 209, 49, 239, 183, 187, 82, 80, 53, 175, 56, 65, 70, 24, 14, 243, 221, 44, 255, 213, 199, 180, 11, 214, 30, 196, 198, 218, 211, 156, 182, 22, 96, 9, 62, 218, 218, 215, 146, 141, 138, 13, 138, 90, 169, 210, 180, 6, 232, 64, 151, 240, 18, 41, 69, 133, 17, 34, 9, 140, 191, 221, 191, 83, 138, 72, 237, 213, 56, 83, 87, 26, 21, 55, 222, 184, 207, 244, 39, 248, 34, 129, 68, 249, 192, 79, 236, 12, 60, 217, 2, 161, 166, 59, 149, 162, 86, 158, 211, 166, 231, 145, 209, 75, 51, 28, 39, 232, 173, 51, 233, 186, 94, 99, 89, 52, 186, 250, 250, 236, 26, 196, 41, 132, 250, 82, 33, 63, 64, 21, 246, 103, 45, 24, 41, 53, 235, 44, 70, 89, 18, 83, 75, 35, 10, 227, 45, 83, 93, 55, 15, 237, 96, 221, 79, 34, 65, 75, 208, 82, 69, 107, 207, 90, 199, 41, 195, 221, 10, 232, 110, 58, 73, 39, 225, 73, 201, 38, 16, 52, 32, 15, 2, 46, 11, 228, 37, 243, 58, 13, 228, 229, 247, 44, 22, 55, 241, 5, 248, 56, 15, 30, 228, 97, 98, 87, 51, 44, 47, 68, 248, 228, 241, 50, 241, 94, 234, 48, 39, 237, 226, 43, 230, 242, 16, 250, 78, 226, 16, 220, 193, 246, 173, 216, 101, 254, 245, 69, 41, 32, 244, 105, 216, 79, 56, 254, 42, 101, 25, 35, 37, 221, 84, 235, 3, 24, 249, 253, 10, 70, 55, 222, 95, 211, 36, 188, 223, 11, 223, 98, 174, 112, 84, 210, 49, 192, 76, 50, 0, 213, 251, 31, 76, 22, 93, 228, 211, 229, 3, 83, 84, 21, 206, 255, 19, 179, 230, 154, 8, 244, 8, 13, 3, 99, 208, 251, 27, 86, 112, 202, 229, 18, 252, 0, 209, 227, 62, 245, 207, 241, 185, 32, 195, 20, 46, 183, 96, 251, 252, 246, 25, 66, 217, 224, 23, 127, 54, 238, 66, 31, 231, 180, 18, 231, 243, 235, 44, 234, 34, 51, 214, 200, 57, 74, 224, 80, 153, 163, 40, 227, 188, 205, 62, 22, 217, 45, 19, 42, 187, 73, 243, 49, 46, 183, 101, 93, 213, 70, 159, 24, 254, 222, 42, 229, 39, 7, 237, 86, 29, 222, 110, 223, 62, 196, 253, 38, 202, 193, 211, 18, 251, 39, 97, 165, 12, 34, 19, 209, 246, 55, 254, 14, 39, 29, 232, 0, 4, 239, 223, 8, 235, 12, 46, 185, 236, 4, 10, 198, 180, 48, 4, 233, 234, 240, 234, 15, 65, 233, 47, 60, 6, 68, 181, 247, 231, 199, 183, 18, 196, 255, 242, 58, 209, 245, 4, 62, 43, 241, 71, 47, 22, 254, 173, 249, 82, 253, 215, 170, 30, 41, 235, 186, 53, 16, 0, 238, 162, 18, 240, 21, 238, 207, 214, 227, 250, 28, 231, 183, 67, 183, 73, 229, 67, 171, 16, 254, 214, 188, 6, 60, 42, 202, 229, 245, 207, 1, 6, 4, 208, 228, 208, 252, 16, 208, 27, 9, 200, 237, 209, 194, 201, 251, 208, 8, 205, 247, 61, 205, 13, 238, 185, 203, 200, 240, 70, 245, 215, 22, 6, 12, 8, 0, 192, 7, 236, 34, 245, 39, 169, 188, 175, 239, 240, 167, 72, 242, 228, 253, 240, 194, 40, 62, 197, 17, 70, 21, 11, 209, 26, 231, 39, 20, 196, 71, 239, 15, 240, 203, 184, 231, 238, 50, 247, 190, 21, 37, 223, 229, 3, 20, 45, 211, 59, 239, 34, 11, 18, 15, 225, 228, 0, 192, 219, 238, 0, 199, 58, 183, 230, 237, 11, 27, 203, 226, 200, 29, 40, 181, 225, 190, 54, 66, 247, 30, 34, 0, 209, 210, 240, 62, 20, 205, 60, 44, 214, 232, 13, 210, 196, 93, 28, 241, 241, 24, 213, 30, 68, 45, 212, 182, 30, 233, 58, 240, 4, 4, 202, 238, 37, 234, 254, 204, 17, 61, 1, 69, 102, 13, 53, 244, 98, 209, 240, 25, 230, 39, 199, 232, 57, 253, 30, 186, 62, 24, 44, 77, 214, 247, 58, 223, 68, 35, 40, 5, 222, 20, 202, 18, 16, 209, 26, 202, 188, 241, 149, 15, 170, 22, 167, 215, 37, 208, 188, 149, 36, 13, 194, 6, 175, 44, 181, 210, 216, 42, 41, 14, 26, 57, 192, 38, 192, 51, 255, 6, 155, 193, 7, 209, 224, 185, 15, 193, 247, 177, 191, 50, 196, 4, 56, 3, 129, 230, 214, 219, 161, 27, 51, 228, 230, 209, 233, 186, 226, 204, 165, 65, 168, 55, 194, 192, 1, 171, 40, 232, 223, 20, 185, 224, 248, 236, 247, 25, 237, 31, 221, 210, 199, 227, 44, 157, 69, 174, 179, 211, 169, 174, 45, 45, 231, 199, 204, 63, 18, 253, 226, 255, 204, 168, 235, 174, 14, 16, 10, 51, 160, 16, 235, 253, 217, 197, 3, 254, 189, 191, 16, 185, 165, 253, 206, 206, 224, 55, 67, 30, 11, 191, 52, 224, 192, 235, 78, 201, 25, 228, 134, 62, 186, 243, 76, 10, 193, 8, 15, 56, 61, 63, 45, 236, 27, 191, 231, 63, 251, 18, 3, 39, 226, 48, 242, 55, 217, 207, 198, 5, 83, 201, 213, 8, 7, 89, 34, 177, 33, 62, 255, 221, 32, 2, 238, 49, 192, 46, 0, 35, 185, 238, 231, 39, 245, 42, 237, 247, 92, 18, 93, 15, 84, 227, 34, 250, 67, 6, 255, 79, 225, 89, 64, 31, 20, 7, 87, 196, 39, 220, 61, 208, 206, 86, 178, 70, 250, 235, 211, 1, 64, 62, 88, 26, 37, 74, 168, 192, 203, 18, 32, 28, 18, 30, 227, 49, 253, 242, 240, 96, 195, 93, 229, 201, 62, 67, 229, 25, 221, 26, 28, 81, 19, 254, 204, 47, 255, 25, 0, 27, 114, 177, 245, 215, 0, 76, 46, 232, 67, 59, 87, 175, 13, 53, 26, 174, 216, 244, 2, 228, 12, 213, 95, 67, 4, 209, 213, 12, 35, 219, 69, 241, 186, 74, 80, 52, 219, 208, 48, 3, 247, 32, 68, 34, 51, 40, 184, 233, 69, 36, 42, 8, 9, 36, 206, 217, 237, 26, 213, 248, 222, 237, 252, 231, 106, 205, 14, 22, 38, 85, 175, 250, 36, 253, 30, 29, 235, 44, 46, 225, 1, 26, 95, 173, 210, 28, 90, 10, 241, 87, 197, 59, 55, 251, 97, 184, 181, 249, 25, 2, 229, 41, 19, 65, 142, 5, 243, 205, 88, 15, 68, 65, 243, 32, 106, 248, 242, 25, 201, 227, 15, 90, 33, 225, 229, 70, 159, 42, 226, 197, 34, 35, 41, 0, 202, 33, 8, 162, 20, 67, 233, 39, 196, 55, 175, 236, 18, 170, 13, 240, 241, 209, 5, 55, 187, 245, 60, 242, 202, 164, 185, 207, 4, 32, 155, 17, 53, 178, 252, 18, 191, 221, 11, 252, 219, 30, 240, 155, 3, 37, 226, 237, 41, 24, 194, 228, 34, 61, 6, 15, 228, 6, 3, 221, 4, 165, 241, 27, 179, 222, 203, 30, 63, 201, 253, 201, 232, 60, 50, 218, 5, 192, 222, 9, 228, 186, 67, 38, 4, 45, 193, 185, 8, 245, 149, 64, 26, 10, 231, 246, 40, 188, 48, 8, 212, 185, 244, 28, 255, 62, 45, 200, 165, 211, 191, 46, 198, 196, 69, 190, 255, 249, 26, 21, 18, 246, 36, 20, 37, 17, 30, 35, 159, 23, 177, 213, 46, 62, 206, 242, 240, 242, 17, 231, 48, 228, 180, 65, 52, 63, 180, 199, 248, 50, 11, 221, 215, 157, 180, 11, 245, 5, 212, 150, 252, 231, 250, 228, 196, 193, 245, 3, 254, 34, 3, 14, 229, 214, 237, 238, 222, 24, 13, 19, 6, 11, 51, 42, 225, 201, 247, 190, 239, 12, 217, 71, 220, 224, 2, 212, 41, 211, 69, 51, 54, 27, 59, 91, 47, 232, 226, 13, 14, 30, 21, 3, 224, 229, 197, 43, 243, 0, 176, 13, 207, 204, 246, 254, 7, 207, 208, 27, 244, 215, 77, 198, 195, 218, 213, 51, 212, 49, 197, 9, 41, 16, 57, 228, 234, 1, 225, 37, 200, 67, 26, 234, 26, 255, 1, 246, 172, 29, 23, 16, 186, 253, 36, 25, 75, 190, 43, 237, 26, 52, 231, 31, 28, 222, 40, 10, 9, 247, 37, 45, 64, 49, 192, 204, 40, 205, 236, 235, 247, 73, 205, 40, 202, 14, 38, 239, 36, 217, 91, 207, 228, 39, 234, 224, 89, 250, 192, 34, 84, 190, 40, 14, 37, 1, 35, 178, 30, 231, 29, 29, 196, 49, 237, 1, 213, 183, 16, 35, 216, 159, 31, 17, 223, 224, 32, 239, 43, 218, 47, 90, 57, 36, 200, 115, 41, 176, 0, 15, 87, 227, 60, 12, 183, 23, 56, 59, 247, 232, 7, 45, 196, 243, 70, 224, 7, 97, 230, 250, 44, 56, 253, 51, 225, 11, 13, 245, 249, 224, 127, 223, 229, 217, 227, 90, 209, 82, 38, 222, 14, 40, 47, 91, 13, 29, 47, 30, 60, 27, 219, 244, 54, 237, 44, 78, 70, 233, 76, 5, 67, 50, 249, 247, 91, 226, 253, 237, 30, 205, 2, 215, 16, 253, 31, 36, 16, 74, 83, 215, 237, 237, 223, 245, 15, 199, 29, 254, 56, 76, 17, 253, 29, 217, 89, 207, 192, 54, 222, 6, 180, 56, 216, 239, 221, 2, 42, 0, 228, 206, 52, 56, 72, 37, 204, 185, 84, 23, 232, 71, 232, 8, 45, 36, 90, 57, 19, 3, 57, 60, 253, 9, 179, 81, 232, 27, 49, 215, 87, 62, 247, 55, 250, 52, 2, 208, 39, 22, 49, 0, 12, 28, 78, 224, 230, 203, 246, 249, 22, 16, 198, 223, 0, 113, 193, 55, 10, 205, 231, 36, 243, 249, 225, 1, 242, 5, 254, 16, 191, 187, 204, 231, 63, 242, 232, 0, 31, 2, 65, 3, 197, 8, 222, 214, 12, 213, 2, 227, 229, 24, 198, 187, 10, 14, 229, 21, 194, 70, 243, 56, 253, 222, 244, 37, 205, 4, 24, 30, 55, 24, 247, 243, 62, 33, 38, 34, 8, 241, 224, 25, 31, 235, 219, 216, 59, 253, 59, 219, 188, 214, 68, 38, 47, 38, 63, 8, 241, 250, 2, 244, 31, 241, 202, 228, 217, 35, 249, 51, 228, 29, 25, 16, 207, 61, 4, 56, 196, 216, 5, 225, 40, 74, 2, 31, 233, 42, 239, 219, 218, 206, 48, 3, 178, 0, 249, 34, 97, 169, 51, 1, 209, 3, 167, 39, 240, 249, 216, 9, 255, 66, 6, 151, 13, 36, 28, 2, 35, 234, 56, 57, 211, 1, 227, 212, 213, 58, 232, 6, 12, 245, 242, 221, 28, 10, 234, 23, 240, 32, 35, 223, 251, 255, 14, 234, 76, 70, 47, 212, 232, 195, 11, 244, 207, 30, 186, 8, 209, 238, 239, 13, 25, 232, 223, 188, 232, 247, 209, 65, 204, 178, 217, 9, 26, 214, 8, 216, 201, 19, 26, 25, 42, 193, 224, 207, 46, 49, 9, 53, 194, 41, 224, 50, 17, 196, 249, 15, 27, 201, 230, 1, 184, 208, 196, 157, 3, 222, 223, 85, 226, 221, 129, 212, 144, 236, 227, 225, 66, 186, 175, 14, 236, 200, 85, 25, 10, 65, 207, 251, 85, 244, 26, 48, 26, 224, 217, 48, 180, 82, 205, 217, 6, 55, 166, 44, 100, 214, 235, 8, 202, 0, 192, 141, 107, 176, 239, 217, 231, 26, 14, 190, 67, 251, 53, 77, 66, 197, 210, 83, 158, 174, 51, 23, 136, 201, 15, 212, 193, 188, 161, 50, 50, 57, 167, 225, 21, 45, 97, 30, 150, 234, 253, 69, 14, 37, 236, 220, 195, 210, 64, 10, 46, 18, 203, 22, 213, 211, 5, 38, 213, 58, 221, 251, 15, 20, 0, 170, 58, 143, 148, 27, 59, 219, 31, 93, 239, 224, 97, 66, 44, 74, 250, 218, 8, 167, 21, 249, 216, 151, 131, 236, 143, 213, 70, 81, 3, 196, 33, 141, 248, 212, 72, 57, 226, 92, 19, 225, 247, 164, 226, 165, 225, 192, 51, 34, 235, 10, 211, 45, 51, 249, 216, 118, 82, 37, 148, 42, 44, 235, 219, 224, 59, 36, 35, 183, 85, 102, 179, 81, 198, 42, 92, 204, 203, 237, 11, 49, 12, 228, 79, 186, 206, 217, 201, 38, 163, 27, 38, 9, 209, 248, 16, 248, 109, 48, 89, 215, 140, 83, 235, 38, 15, 225, 245, 207, 85, 78, 251, 107, 247, 33, 73, 115, 74, 160, 50, 221, 81, 44, 44, 8, 232, 7, 237, 172, 229, 218, 12, 78, 70, 97, 206, 176, 167, 0, 89, 224, 89, 206, 165, 26, 165, 13, 80, 21, 184, 208, 204, 169, 163, 232, 186, 184, 229, 177, 243, 202, 67, 203, 5, 254, 53, 44, 241, 30, 240, 187, 105, 198, 221, 182, 96, 29, 237, 243, 8, 16, 57, 234, 67, 63, 234, 34, 155, 158, 37, 2, 191, 55, 104, 29, 176, 213, 235, 13, 55, 41, 4, 218, 49, 7, 217, 13, 216, 96, 249, 223, 198, 5, 155, 47, 195, 142, 221, 29, 12, 229, 218, 224, 33, 29, 15, 30, 59, 8, 42, 16, 252, 181, 238, 239, 244, 251, 98, 243, 204, 23, 207, 99, 87, 39, 236, 154, 217, 26, 73, 70, 232, 225, 13, 205, 164, 175, 37, 190, 176, 62, 16, 94, 55, 68, 162, 32, 49, 25, 6, 6, 26, 214, 141, 168, 102, 200, 230, 240, 167, 227, 1, 80, 3, 76, 238, 219, 73, 242, 238, 93, 252, 211, 222, 213, 79, 216, 24, 182, 230, 181, 14, 236, 61, 93, 18, 26, 40, 217, 189, 175, 216, 78, 32, 112, 133, 237, 20, 180, 15, 209, 14, 165, 194, 37, 2, 230, 190, 84, 245, 23, 54, 231, 199, 106, 199, 87, 167, 255, 242, 222, 212, 226, 173, 192, 13, 23, 200, 6, 39, 152, 78, 34, 16, 210, 21, 222, 167, 41, 13, 23, 25, 209, 63, 174, 226, 28, 35, 75, 157, 248, 51, 56, 189, 243, 186, 72, 1, 47, 133, 144, 49, 40, 224, 198, 58, 63, 243, 9, 242, 233, 38, 230, 22, 192, 103, 15, 217, 51, 1, 92, 207, 7, 16, 227, 199, 202, 10, 206, 53, 90, 45, 68, 82, 216, 3, 183, 240, 16, 11, 67, 45, 223, 78, 193, 16, 10, 69, 227, 186, 250, 102, 228, 194, 175, 75, 86, 205, 185, 15, 74, 28, 92, 192, 188, 43, 243, 181, 29, 237, 202, 223, 207, 205, 226, 232, 250, 188, 248, 248, 186, 80, 74, 39, 203, 218, 238, 98, 4, 74, 222, 16, 156, 0, 66, 211, 55, 78, 223, 239, 13, 239, 187, 43, 32, 90, 165, 222, 149, 244, 149, 49, 197, 67, 99, 235, 241, 24, 171, 220, 179, 162, 181, 94, 198, 0, 165, 229, 172, 173, 72, 172, 67, 215, 171, 47, 204, 249, 10, 74, 87, 179, 150, 249, 57, 173, 219, 204, 131, 215, 43, 178, 45, 91, 59, 232, 4, 41, 95, 59, 209, 35, 198, 143, 16, 100, 177, 51, 159, 207, 138, 15, 12, 166, 253, 0, 96, 103, 218, 51, 140, 25, 239, 185, 76, 131, 84, 237, 14, 232, 55, 86, 132, 91, 199, 152, 167, 58, 27, 163, 146, 186, 77, 61, 10, 84, 224, 99, 91, 196, 171, 40, 178, 154, 99, 46, 59, 44, 15, 228, 139, 35, 92, 6, 169, 98, 221, 188, 55, 227, 93, 184, 92, 206, 230, 66, 149, 6, 51, 218, 7, 251, 141, 75, 253, 253, 143, 177, 41, 234, 67, 24, 187, 82, 208, 168, 3, 21, 44, 247, 225, 35, 0, 7, 43, 168, 229, 3, 101, 218, 167, 97, 165, 77, 185, 160, 81, 183, 147, 66, 8, 67, 219, 53, 215, 180, 228, 10, 232, 232, 13, 167, 205, 157, 88, 174, 145, 235, 229, 134, 198, 165, 158, 89, 254, 216, 229, 79, 152, 219, 87, 241, 185, 40, 22, 148, 96, 213, 89, 70, 175, 57, 24, 73, 44, 227, 63, 44, 46, 215, 36, 28, 202, 64, 89, 20, 80, 157, 175, 229, 171, 84, 86, 223, 214, 187, 146, 198, 33, 167, 250, 211, 200, 15, 148, 222, 142, 54, 155, 250, 139, 51, 155, 77, 22, 181, 139, 227, 209, 159, 11, 235, 35, 76, 159, 212, 100, 15, 237, 39, 176, 150, 3, 2, 209, 25, 162, 34, 220, 225, 135, 49, 19, 51, 145, 66, 54, 225, 84, 48, 24, 187, 173, 162, 137, 230, 82, 236, 229, 23, 49, 62, 222, 26, 187, 150, 208, 209, 64, 66, 57, 38, 249, 60, 244, 185, 89, 20, 231, 82, 171, 244, 28, 10, 173, 62, 208, 96, 87, 245, 185, 6, 58, 8, 233, 143, 183, 192, 248, 20, 7, 166, 153, 236, 246, 253, 212, 151, 254, 196, 166, 63, 175, 248, 91, 27, 2, 240, 29, 68, 69, 207, 247, 242, 224, 222, 1, 234, 3, 3, 181, 52, 62, 201, 81, 23, 64, 7, 81, 204, 10, 50, 250, 245, 211, 38, 160, 210, 55, 223, 192, 160, 37, 25, 252, 215, 29, 17, 137, 105, 206, 95, 185, 185, 201, 165, 230, 102, 8, 63, 66, 82, 240, 64, 89, 210, 89, 135, 90, 181, 186, 56, 158, 63, 58, 245, 57, 150, 178, 8, 198, 88, 141, 88, 132, 66, 187, 165, 41, 253, 191, 133, 151, 93, 188, 146, 79, 138, 159, 94, 163, 70, 92, 81, 173, 195, 83, 45, 162, 254, 246, 213, 135, 90, 174, 89, 241, 227, 9, 15, 43, 26, 23, 28, 69, 65, 73, 18, 214, 36, 22, 67, 236, 164, 145, 27, 35, 196, 53, 230, 201, 129, 141, 224, 86, 131, 208, 223, 76, 199, 193, 214, 195, 216, 218, 73, 53, 93, 229, 206, 227, 51, 28, 88, 22, 251, 181, 167, 139, 244, 187, 243, 184, 48, 157, 89, 42, 226, 174, 132, 25, 161, 38, 248, 174, 17, 239, 44, 236, 15, 62, 207, 9, 174, 18, 145, 67, 180, 244, 14, 12, 97, 185, 246, 244, 61, 182, 249, 21, 194, 207, 84, 209, 47, 44, 27, 193, 127, 255, 47, 249, 221, 33, 103, 64, 66, 223, 178, 198, 74, 13, 199, 239, 244, 85, 189, 250, 213, 255, 213, 48, 19, 225, 230, 208, 116, 34, 60, 45, 18, 77, 8, 158, 88, 72, 245, 46, 59, 37, 48, 58, 15, 191, 32, 16, 57, 73, 176, 245, 100, 53, 14, 249, 212, 244, 41, 15, 167, 44, 102, 99, 216, 24, 36, 239, 211, 44, 49, 97, 28, 106, 163, 104, 213, 184, 90, 0, 239, 209, 66, 145, 38, 98, 16, 211, 25, 38, 236, 237, 225, 52, 40, 47, 45, 83, 22, 170, 237, 2, 227, 243, 48, 87, 30, 48, 52, 51, 212, 250, 43, 37, 58, 2, 244, 255, 108, 30, 242, 210, 28, 19, 171, 73, 27, 77, 251, 19, 22, 79, 215, 206, 62, 74, 235, 246, 212, 102, 219, 209, 248, 197, 175, 75, 8, 224, 207, 244, 12, 47, 14, 174, 49, 119, 93, 52, 102, 82, 41, 71, 71, 20, 24, 173, 86, 179, 227, 43, 199, 56, 227, 207, 191, 13, 248, 247, 6, 229, 81, 89, 18, 218, 74, 230, 233, 202, 247, 14, 5, 0, 16, 185, 174, 57, 238, 154, 11, 220, 233, 45, 191, 67, 203, 241, 15, 220, 71, 46, 179, 180, 223, 23, 19, 222, 32, 201, 232, 84, 83, 50, 37, 215, 241, 46, 237, 27, 34, 13, 222, 167, 250, 20, 28, 50, 15, 18, 48, 39, 240, 215, 223, 197, 12, 25, 212, 40, 192, 182, 44, 183, 235, 192, 195, 74, 210, 249, 48, 255, 57, 12, 25, 196, 243, 82, 192, 238, 242, 69, 139, 236, 181, 4, 95, 18, 16, 93, 19, 190, 48, 213, 17, 208, 196, 36, 35, 4, 181, 203, 5, 55, 200, 212, 38, 8, 2, 161, 146, 25, 17, 219, 77, 144, 17, 178, 26, 248, 49, 38, 25, 17, 175, 64, 186, 85, 231, 182, 1, 5, 174, 61, 77, 6, 3, 241, 60, 174, 7, 58, 211, 82, 222, 22, 63, 13, 237, 34, 71, 164, 82, 177, 17, 7, 37, 157, 57, 64, 62, 219, 69, 48, 210, 85, 43, 215, 185, 250, 222, 237, 247, 238, 243, 0, 244, 70, 231, 182, 254, 195, 19, 230, 76, 209, 32, 76, 242, 20, 212, 76, 239, 189, 59, 73, 254, 48, 45, 234, 36, 193, 3, 212, 182, 53, 17, 253, 209, 22, 15, 26, 49, 185, 200, 220, 13, 67, 213, 22, 244, 188, 166, 50, 220, 217, 243, 174, 72, 29, 51, 178, 217, 213, 202, 224, 85, 4, 208, 11, 8, 252, 87, 2, 37, 67, 176, 207, 221, 55, 42, 32, 42, 90, 14, 238, 212, 199, 43, 182, 203, 175, 63, 178, 222, 174, 234, 61, 245, 80, 184, 33, 175, 81, 82, 208, 206, 196, 32, 167, 204, 48, 40, 212, 85, 207, 11, 36, 25, 87, 18, 182, 175, 254, 69, 179, 191, 68, 39, 186, 203, 192, 195, 174, 45, 196, 246, 190, 82, 208, 240, 165, 106, 215, 239, 110, 250, 13, 43, 74, 202, 233, 74, 90, 192, 41, 15, 139, 206, 245, 216, 218, 180, 220, 16, 55, 182, 237, 71, 224, 245, 38, 4, 227, 23, 202, 241, 246, 96, 215, 199, 241, 27, 76, 89, 2, 210, 89, 187, 194, 184, 210, 100, 165, 40, 21, 3, 14, 91, 201, 194, 202, 7, 71, 201, 179, 43, 7, 36, 54, 158, 203, 211, 150, 234, 234, 44, 200, 221, 224, 9, 11, 222, 180, 183, 48, 53, 62, 31, 249, 179, 230, 195, 253, 31, 17, 212, 221, 1, 211, 35, 23, 222, 255, 228, 170, 64, 228, 53, 34, 1, 218, 177, 211, 242, 12, 9, 197, 131, 44, 246, 192, 251, 45, 14, 19, 50, 177, 254, 194, 217, 57, 29, 38, 5, 22, 218, 25, 61, 30, 221, 234, 208, 180, 175, 233, 226, 22, 30, 9, 25, 4, 204, 46, 189, 0, 237, 208, 75, 17, 209, 28, 212, 69, 195, 7, 146, 232, 184, 44, 240, 52, 184, 235, 18, 47, 56, 207, 18, 30, 56, 43, 223, 168, 228, 203, 216, 218, 48, 8, 184, 166, 157, 87, 24, 239, 184, 85, 229, 244, 71, 54, 249, 225, 76, 186, 251, 194, 248, 60, 8, 36, 55, 244, 25, 57, 41, 12, 63, 70, 236, 48, 106, 25, 69, 2, 66, 54, 168, 76, 55, 20, 235, 65, 226, 225, 56, 12, 246, 231, 224, 214, 222, 51, 91, 222, 238, 232, 72, 87, 92, 204, 66, 201, 225, 194, 17, 93, 19, 217, 76, 60, 38, 86, 111, 41, 90, 254, 71, 55, 233, 197, 233, 64, 107, 59, 55, 242, 15, 127, 34, 245, 79, 52, 53, 235, 105, 17, 100, 84, 16, 103, 226, 54, 80, 26, 24, 246, 21, 77, 234, 235, 22, 46, 198, 61, 245, 179, 96, 70, 248, 7, 68, 199, 218, 69, 92, 84, 62, 96, 191, 37, 64, 8, 95, 75, 228, 231, 5, 207, 200, 51, 206, 224, 62, 12, 188, 191, 67, 220, 45, 236, 21, 17, 183, 126, 33, 62, 86, 224, 51, 83, 120, 249, 31, 239, 216, 211, 73, 44, 9, 24, 92, 109, 98, 238, 210, 21, 26, 56, 157, 57, 104, 237, 47, 69, 214, 61, 20, 30, 69, 182, 68, 54, 178, 84, 98, 73, 221, 242, 71, 244, 71, 241, 2, 11, 212, 90, 74, 56, 201, 7, 83, 42, 48, 80, 235, 6, 166, 75, 38, 231, 225, 189, 87, 119, 110, 174, 72, 0, 78, 216, 51, 18, 21, 242, 60, 252, 87, 236, 173, 229, 255, 177, 204, 49, 218, 253, 250, 213, 151, 63, 203, 49, 242, 156, 5, 244, 207, 91, 218, 226, 14, 59, 51, 68, 14, 227, 247, 217, 12, 95, 207, 233, 161, 9, 12, 187, 63, 23, 19, 89, 29, 83, 175, 35, 164, 197, 183, 226, 42, 246, 199, 65, 194, 37, 151, 55, 103, 2, 75, 101, 240, 26, 216, 203, 34, 188, 180, 214, 202, 35, 74, 169, 168, 56, 20, 66, 204, 22, 238, 223, 163, 220, 1, 221, 211, 43, 187, 15, 30, 26, 191, 35, 58, 186, 247, 189, 3, 18, 75, 50, 24, 33, 221, 199, 199, 241, 237, 167, 53, 175, 37, 252, 197, 18, 173, 6, 245, 26, 23, 183, 27, 46, 251, 89, 229, 216, 9, 59, 96, 201, 170, 248, 210, 57, 21, 232, 225, 254, 45, 220, 156, 188, 55, 219, 32, 218, 78, 43, 244, 27, 13, 51, 62, 192, 10, 41, 45, 11, 58, 181, 159, 173, 203, 34, 185, 208, 214, 204, 24, 70, 240, 173, 223, 186, 0, 189, 21, 205, 53, 88, 203, 180, 208, 255, 55, 207, 197, 74, 193, 242, 31, 6, 188, 163, 153, 186, 239, 44, 155, 31, 27, 199, 15, 181, 190, 201, 233, 228, 22, 198, 228, 74, 226, 33, 123, 38, 206, 248, 254, 37, 107, 75, 176, 178, 180, 152, 46, 156, 208, 248, 243, 118, 29, 234, 235, 9, 174, 185, 12, 20, 70, 178, 119, 75, 113, 173, 13, 160, 19, 229, 94, 62, 100, 55, 185, 105, 204, 210, 103, 239, 37, 78, 198, 229, 24, 74, 255, 198, 70, 198, 21, 127, 11, 197, 113, 43, 228, 206, 8, 25, 195, 90, 238, 46, 241, 74, 35, 214, 242, 8, 232, 234, 9, 61, 7, 17, 170, 83, 57, 215, 205, 77, 217, 196, 4, 45, 54, 214, 112, 182, 20, 55, 54, 217, 46, 198, 164, 46, 154, 69, 23, 195, 212, 163, 10, 242, 8, 199, 33, 247, 240, 248, 3, 61, 240, 95, 44, 14, 242, 188, 63, 68, 56, 26, 213, 18, 156, 204, 228, 228, 13, 23, 82, 27, 87, 16, 195, 17, 22, 205, 253, 225, 65, 4, 200, 23, 64, 85, 192, 62, 36, 79, 66, 168, 243, 181, 13, 91, 7, 190, 161, 108, 2, 50, 247, 237, 95, 65, 235, 73, 188, 43, 35, 95, 180, 236, 215, 52, 235, 99, 46, 18, 27, 20, 60, 97, 44, 170, 50, 59, 199, 3, 113, 89, 225, 20, 72, 65, 85, 156, 234, 87, 158, 222, 3, 25, 20, 230, 56, 27, 199, 190, 236, 150, 92, 11, 74, 180, 89, 19, 64, 16, 20, 224, 215, 86, 227, 8, 241, 171, 31, 252, 209, 16, 242, 29, 9, 22, 74, 244, 169, 213, 86, 12, 41, 239, 6, 57, 98, 215, 61, 69, 190, 14, 3, 233, 198, 246, 226, 79, 194, 58, 25, 57, 39, 56, 7, 29, 49, 171, 186, 1, 67, 60, 172, 170, 205, 0, 11, 19, 78, 183, 187, 20, 61, 187, 18, 242, 249, 201, 250, 185, 248, 10, 0, 247, 1, 13, 239, 0, 239, 252, 152, 45, 30, 15, 39, 4, 4, 0, 36, 92, 246, 228, 51, 53, 250, 187, 251, 213, 77, 49, 9, 196, 49, 13, 209, 52, 161, 72, 46, 34, 183, 55, 226, 200, 8, 230, 211, 236, 250, 217, 237, 207, 109, 176, 235, 244, 61, 29, 5, 59, 39, 70, 139, 60, 66, 27, 48, 251, 203, 64, 60, 191, 27, 90, 146, 27, 246, 245, 109, 252, 168, 241, 187, 53, 49, 9, 69, 246, 75, 254, 252, 60, 105, 88, 162, 208, 192, 251, 11, 64, 240, 92, 163, 197, 50, 86, 253, 233, 29, 88, 38, 225, 244, 7, 20, 202, 42, 162, 190, 157, 231, 2, 206, 45, 34, 92, 21, 24, 94, 210, 8, 53, 75, 236, 219, 58, 71, 67, 25, 239, 240, 200, 201, 96, 30, 169, 250, 247, 102, 19, 191, 202, 22, 101, 45, 84, 237, 236, 244, 181, 60, 206, 189, 167, 231, 14, 176, 97, 241, 246, 72, 91, 193, 5, 0, 203, 76, 254, 92, 92, 82, 229, 75, 235, 81, 79, 25, 75, 252, 13, 63, 231, 2, 65, 6, 231, 230, 192, 85, 42, 27, 12, 227, 46, 90, 79, 0, 3, 184, 235, 23, 101, 249, 59, 45, 202, 35, 201, 251, 15, 190, 4, 233, 65, 218, 30, 222, 251, 59, 243, 175, 53, 225, 217, 44, 33, 52, 96, 208, 232, 46, 3, 88, 102, 218, 217, 230, 251, 198, 238, 61, 223, 14, 65, 31, 0, 105, 199, 11, 76, 172, 68, 195, 237, 2, 22, 241, 2, 89, 207, 53, 56, 50, 53, 211, 169, 161, 231, 244, 213, 179, 206, 244, 21, 250, 227, 217, 229, 184, 249, 187, 211, 100, 30, 31, 150, 34, 234, 87, 23, 192, 224, 7, 217, 184, 213, 165, 185, 39, 203, 210, 70, 137, 204, 159, 212, 205, 188, 240, 51, 214, 24, 26, 246, 82, 4, 140, 4, 224, 216, 197, 231, 210, 198, 179, 10, 241, 20, 22, 42, 131, 245, 47, 191, 246, 180, 29, 248, 44, 154, 86, 204, 182, 47, 218, 249, 245, 237, 196, 213, 23, 204, 62, 223, 234, 250, 22, 8, 194, 11, 50, 203, 10, 192, 232, 17, 27, 187, 154, 236, 27, 170, 241, 161, 66, 195, 228, 165, 39, 45, 138, 13, 60, 246, 231, 45, 10, 81, 235, 129, 233, 30, 56, 13, 205, 5, 181, 240, 27, 254, 93, 254, 226, 172, 43, 79, 155, 3, 180, 237, 171, 168, 84, 220, 3, 8, 78, 198, 184, 191, 24, 2, 189, 86, 197, 193, 243, 97, 210, 238, 194, 237, 226, 133, 181, 220, 50, 155, 60, 43, 247, 56, 192, 72, 150, 248, 70, 214, 13, 3, 230, 95, 52, 21, 226, 249, 215, 199, 191, 212, 212, 38, 233, 232, 254, 214, 98, 170, 74, 235, 68, 37, 24, 59, 197, 72, 9, 230, 254, 60, 10, 52, 72, 16, 58, 87, 106, 51, 192, 176, 195, 252, 240, 219, 37, 165, 24, 210, 57, 4, 116, 9, 215, 224, 23, 224, 64, 245, 36, 69, 7, 68, 64, 48, 89, 93, 37, 4, 238, 158, 30, 218, 12, 246, 91, 84, 247, 77, 17, 53, 30, 191, 72, 214, 81, 35, 240, 74, 78, 105, 45, 125, 250, 33, 108, 254, 31, 22, 62, 111, 237, 222, 204, 101, 21, 7, 230, 74, 255, 10, 251, 217, 68, 169, 17, 106, 41, 64, 250, 207, 63, 252, 201, 115, 86, 198, 22, 113, 47, 217, 244, 92, 229, 236, 12, 18, 58, 64, 219, 9, 44, 172, 97, 81, 26, 96, 242, 89, 33, 72, 222, 242, 16, 80, 37, 61, 38, 106, 249, 242, 85, 217, 39, 64, 249, 59, 238, 79, 10, 194, 28, 245, 67, 107, 222, 50, 255, 84, 95, 249, 62, 214, 253, 79, 63, 238, 74, 226, 187, 244, 91, 248, 36, 196, 74, 190, 190, 29, 197, 224, 243, 206, 81, 214, 242, 239, 73, 218, 61, 38, 99, 28, 226, 221, 84, 34, 211, 36, 35, 209, 171, 93, 21, 181, 114, 211, 84, 33, 14, 62, 219, 48, 61, 92, 56, 241, 194, 50, 55, 217, 247, 94, 228, 56, 37, 197, 201, 58, 27, 11, 220, 63, 82, 223, 198, 6, 235, 54, 30, 68, 206, 83, 82, 240, 69, 252, 19, 20, 23, 14, 87, 3, 170, 198, 196, 183, 213, 73, 222, 48, 216, 39, 22, 48, 10, 199, 0, 77, 39, 44, 251, 25, 198, 86, 27, 76, 40, 197, 47, 178, 210, 29, 197, 23, 22, 58, 77, 37, 23, 209, 215, 213, 208, 71, 175, 192, 72, 35, 8, 188, 191, 243, 178, 171, 227, 67, 59, 23, 61, 201, 12, 158, 211, 12, 210, 179, 180, 39, 80, 194, 165, 63, 238, 181, 68, 40, 52, 236, 180, 23, 212, 200, 23, 167, 240, 233, 238, 146, 54, 158, 204, 225, 158, 17, 227, 36, 57, 69, 65, 82, 180, 225, 75, 210, 204, 25, 47, 177, 208, 41, 214, 251, 187, 11, 229, 182, 201, 28, 24, 209, 2, 11, 234, 70, 205, 190, 30, 196, 170, 25, 63, 46, 212, 226, 236, 77, 245, 62, 35, 76, 181, 232, 244, 46, 43, 32, 223, 193, 37, 98, 63, 207, 57, 37, 44, 38, 195, 7, 111, 211, 231, 12, 71, 203, 155, 247, 244, 205, 30, 208, 7, 43, 22, 54, 52, 238, 212, 247, 179, 225, 84, 84, 48, 65, 185, 88, 233, 252, 251, 238, 217, 185, 228, 56, 3, 8, 208, 208, 11, 224, 54, 75, 17, 242, 179, 65, 11, 76, 215, 42, 63, 187, 228, 212, 50, 79, 60, 11, 203, 190, 27, 208, 103, 33, 22, 59, 89, 83, 201, 99, 34, 59, 238, 89, 253, 230, 222, 65, 21, 64, 39, 245, 68, 183, 10, 250, 153, 30, 212, 55, 16, 82, 181, 56, 231, 249, 51, 45, 191, 238, 13, 69, 144, 218, 13, 12, 245, 39, 210, 67, 166, 30, 65, 224, 186, 237, 9, 245, 226, 194, 157, 67, 19, 178, 161, 17, 23, 212, 190, 12, 17, 67, 66, 97, 34, 217, 245, 82, 58, 194, 23, 207, 203, 248, 207, 99, 176, 99, 45, 41, 227, 31, 27, 57, 18, 255, 4, 176, 195, 155, 26, 185, 34, 230, 70, 53, 195, 89, 239, 37, 26, 91, 205, 225, 8, 34, 28, 210, 211, 11, 67, 238, 183, 171, 29, 182, 196, 249, 159, 41, 188, 73, 208, 213, 19, 83, 18, 76, 22, 60, 249, 180, 97, 248, 21, 240, 192, 32, 12, 30, 162, 51, 220, 248, 33, 189, 173, 69, 237, 232, 30, 169, 206, 165, 36, 10, 144, 65, 28, 15, 209, 221, 207, 72, 53, 55, 231, 200, 181, 233, 25, 203, 4, 242, 88, 233, 254, 93, 223, 243, 156, 20, 32, 15, 73, 51, 63, 81, 229, 217, 195, 48, 14, 229, 154, 214, 250, 222, 191, 249, 7, 46, 209, 22, 183, 32, 58, 232, 194, 23, 45, 146, 187, 46, 146, 18, 186, 218, 216, 92, 230, 42, 171, 65, 210, 58, 182, 32, 58, 26, 39, 242, 175, 38, 224, 45, 198, 187, 47, 206, 80, 34, 240, 24, 55, 5, 137, 214, 164, 58, 69, 143, 1, 41, 94, 214, 63, 169, 145, 73, 162, 244, 220, 190, 13, 181, 246, 60, 234, 65, 154, 144, 237, 199, 245, 68, 171, 179, 250, 28, 45, 207, 39, 170, 206, 140, 90, 196, 163, 31, 27, 250, 71, 65, 27, 31, 78, 253, 226, 218, 44, 73, 72, 80, 37, 31, 250, 239, 2, 243, 199, 55, 4, 146, 221, 179, 213, 181, 196, 221, 230, 52, 180, 76, 252, 246, 169, 189, 100, 153, 98, 62, 2, 191, 235, 186, 52, 234, 196, 47, 252, 79, 71, 214, 182, 181, 238, 52, 70, 195, 94, 182, 242, 63, 112, 15, 100, 210, 110, 17, 44, 49, 19, 78, 250, 239, 220, 187, 74, 251, 34, 183, 6, 192, 202, 214, 221, 218, 92, 216, 197, 255, 19, 1, 237, 15, 39, 181, 202, 10, 46, 247, 95, 180, 32, 202, 75, 83, 199, 57, 8, 253, 77, 68, 18, 187, 198, 38, 90, 254, 26, 56, 200, 13, 50, 183, 226, 223, 246, 196, 11, 18, 225, 106, 76, 68, 253, 166, 43, 75, 127, 19, 60, 80, 190, 210, 79, 242, 11, 0, 179, 20, 250, 19, 221, 0, 95, 70, 80, 193, 47, 81, 60, 250, 11, 198, 8, 4, 241, 204, 249, 213, 70, 8, 75, 210, 255, 169, 169, 210, 165, 209, 225, 218, 52, 165, 54, 194, 34, 223, 49, 196, 24, 3, 52, 65, 193, 206, 235, 18, 218, 208, 225, 188, 37, 225, 224, 248, 152, 193, 3, 214, 15, 248, 201, 255, 84, 157, 188, 233, 9, 253, 26, 220, 149, 55, 170, 244, 34, 156, 50, 252, 204, 87, 165, 84, 202, 235, 190, 54, 235, 49, 174, 75, 193, 28, 54, 11, 239, 62, 112, 198, 235, 190, 47, 40, 75, 43, 93, 92, 87, 44, 152, 200, 244, 50, 216, 248, 71, 20, 225, 165, 174, 178, 225, 13, 235, 21, 41, 186, 102, 9, 46, 61, 6, 51, 164, 176, 42, 199, 41, 229, 181, 5, 91, 183, 85, 76, 57, 211, 15, 191, 249, 4, 21, 199, 201, 34, 0, 216, 85, 189, 40, 185, 18, 204, 96, 237, 172, 62, 204, 209, 247, 240, 226, 16, 226, 2, 27, 23, 199, 173, 229, 3, 252, 20, 17, 74, 248, 187, 241, 242, 12, 238, 40, 38, 17, 181, 65, 24, 67, 59, 7, 17, 92, 221, 248, 38, 253, 242, 53, 9, 253, 241, 72, 14, 197, 45, 234, 215, 7, 86, 207, 101, 80, 219, 12, 242, 235, 253, 2, 100, 192, 83, 246, 47, 10, 36, 73, 57, 227, 115, 35, 237, 67, 185, 242, 66, 245, 66, 31, 59, 71, 77, 177, 21, 98, 40, 56, 214, 85, 71, 224, 23, 72, 210, 6, 54, 32, 72, 235, 8, 68, 213, 78, 217, 198, 214, 70, 233, 247, 18, 44, 86, 25, 67, 230, 74, 28, 54, 20, 61, 251, 223, 88, 219, 56, 181, 101, 25, 25, 28, 38, 110, 225, 31, 84, 239, 208, 65, 239, 251, 194, 184, 252, 60, 3, 7, 228, 56, 255, 59, 91, 50, 41, 83, 218, 127, 6, 254, 13, 195, 217, 88, 23, 223, 236, 52, 187, 227, 86, 244, 233, 187, 202, 71, 254, 66, 251, 248, 8, 87, 115, 204, 71, 252, 12, 100, 252, 19, 22, 25, 72, 194, 51, 2, 214, 30, 227, 252, 248, 65, 78, 68, 60, 222, 78, 3, 225, 57, 24, 207, 80, 227, 215, 225, 26, 103, 77, 221, 199, 65, 215, 229, 36, 241, 58, 199, 230, 40, 222, 22, 14, 236, 28, 189, 195, 4, 55, 69, 104, 82, 73, 189, 240, 1, 214, 193, 15, 219, 213, 1, 178, 33, 214, 205, 207, 245, 250, 8, 70, 54, 65, 7, 193, 165, 79, 224, 18, 206, 7, 78, 51, 254, 209, 2, 201, 54, 69, 234, 81, 240, 62, 19, 194, 253, 255, 220, 183, 251, 92, 206, 186, 5, 188, 236, 247, 13, 3, 6, 29, 197, 25, 200, 241, 183, 2, 144, 252, 47, 10, 22, 242, 80, 147, 231, 165, 238, 247, 233, 82, 199, 246, 72, 2, 72, 40, 226, 50, 215, 2, 15, 218, 74, 219, 193, 51, 205, 235, 61, 172, 255, 177, 33, 207, 66, 41, 222, 248, 239, 87, 78, 52, 234, 3, 221, 5, 203, 65, 202, 5, 63, 211, 165, 211, 206, 227, 98, 16, 220, 179, 200, 217, 208, 50, 248, 251, 191, 184, 166, 217, 231, 18, 212, 185, 13, 206, 173, 94, 6, 165, 233, 61, 73, 213, 22, 161, 42, 79, 228, 162, 207, 146, 241, 213, 30, 32, 42, 29, 16, 223, 222, 202, 241, 215, 240, 25, 197, 10, 3, 48, 233, 236, 57, 18, 54, 246, 85, 251, 22, 167, 5, 173, 187, 31, 61, 219, 66, 68, 3, 35, 200, 25, 206, 232, 55, 223, 236, 56, 28, 178, 252, 42, 54, 42, 18, 16, 169, 70, 16, 236, 18, 230, 84, 186, 9, 184, 47, 243, 226, 42, 235, 71, 29, 228, 195, 223, 249, 187, 191, 193, 25, 76, 22, 21, 240, 186, 170, 60, 255, 51, 200, 45, 18, 12, 204, 214, 206, 63, 198, 183, 190, 11, 235, 57, 244, 236, 48, 220, 225, 192, 13, 59, 220, 11, 8, 241, 179, 227, 204, 186, 33, 73, 64, 188, 33, 33, 16, 31, 244, 251, 237, 254, 61, 253, 254, 172, 174, 230, 11, 182, 215, 40, 175, 166, 60, 214, 22, 180, 239, 30, 151, 194, 233, 207, 248, 64, 234, 251, 247, 171, 197, 230, 177, 23, 11, 193, 242, 252, 20, 45, 228, 13, 240, 212, 16, 182, 194, 70, 44, 52, 199, 174, 219, 200, 35, 46, 66, 214, 204, 176, 234, 230, 191, 179, 182, 214, 187, 30, 216, 228, 14, 45, 58, 39, 45, 197, 245, 187, 50, 163, 21, 172, 180, 188, 193, 194, 10, 217, 191, 48, 214, 205, 209, 242, 186, 1, 226, 22, 16, 189, 213, 226, 20, 19, 241, 219, 47, 228, 232, 40, 237, 225, 210, 178, 2, 162, 203, 191, 188, 246, 27, 36, 165, 165, 207, 231, 179, 241, 172, 167, 173, 176, 39, 25, 150, 191, 31, 180, 34, 224, 243, 13, 235, 216, 53, 202, 246, 177, 204, 222, 195, 196, 74, 13, 149, 160, 64, 239, 198, 215, 215, 21, 208, 26, 205, 186, 181, 41, 226, 197, 196, 244, 57, 54, 69, 223, 17, 45, 195, 169, 63, 10, 255, 19, 202, 204, 213, 188, 209, 194, 176, 198, 240, 40, 5, 178, 224, 194, 12, 8, 220, 248, 181, 179, 245, 201, 210, 212, 182, 28, 193, 42, 190, 54, 23, 7, 228, 184, 196, 52, 190, 201, 0, 20, 211, 244, 48, 180, 54, 85, 191, 245, 17, 249, 48, 254, 46, 46, 221, 5, 54, 9, 75, 235, 30, 225, 183, 37, 234, 45, 84, 228, 240, 239, 78, 242, 6, 232, 219, 250, 0, 56, 44, 187, 248, 44, 80, 71, 11, 234, 1, 15, 13, 3, 36, 253, 0, 37, 18, 239, 24, 178, 214, 73, 213, 47, 225, 12, 253, 49, 44, 189, 60, 223, 7, 223, 188, 10, 36, 25, 88, 127, 243, 213, 50, 72, 52, 252, 21, 220, 250, 229, 192, 68, 123, 39, 240, 83, 229, 240, 40, 223, 228, 197, 19, 36, 43, 62, 252, 40, 118, 93, 222, 191, 191, 249, 214, 44, 57, 233, 15, 29, 26, 226, 82, 46, 50, 31, 89, 4, 225, 186, 247, 203, 42, 64, 62, 72, 51, 243, 91, 40, 250, 2, 241, 47, 89, 51, 91, 6, 85, 47, 64, 91, 244, 60, 34, 69, 12, 247, 236, 42, 85, 10, 61, 46, 56, 189, 212, 239, 249, 81, 68, 37, 36, 16, 26, 55, 49, 77, 67, 220, 68, 41, 84, 30, 81, 22, 32, 36, 30, 1, 205, 48, 224, 59, 60, 64, 15, 241, 192, 206, 32, 222, 29, 36, 36, 32, 80, 73, 49, 65, 89, 244, 252, 8, 7, 87, 39, 27, 228, 27, 243, 13, 237, 200, 243, 11, 28, 37, 67, 12, 83, 251, 63, 189, 79, 200, 224, 16, 227, 221, 66, 199, 235, 34, 14, 220, 54, 67, 250, 0, 74, 7, 188, 245, 237, 177, 203, 65, 221, 38, 253, 244, 178, 52, 47, 237, 178, 26, 212, 212, 18, 28, 70, 178, 249, 166, 161, 217, 252, 38, 4, 41, 186, 245, 193, 197, 183, 131, 193, 33, 31, 247, 250, 187, 199, 191, 248, 18, 195, 167, 201, 1, 181, 0, 58, 241, 239, 18, 251, 187, 201, 160, 182, 231, 246, 236, 176, 217, 182, 165, 216, 62, 87, 54, 200, 18, 150, 240, 54, 176, 1, 69, 207, 174, 1, 164, 20, 211, 228, 12, 212, 222, 207, 26, 215, 43, 182, 240, 181, 15, 179, 248, 56, 235, 23, 27, 77, 55, 32, 58, 173, 64, 62, 38, 55, 178, 222, 148, 19, 22, 168, 164, 60, 34, 181, 178, 67, 138, 196, 187, 238, 62, 216, 234, 24, 242, 47, 77, 15, 242, 207, 232, 67, 60, 175, 28, 232, 227, 81, 253, 178, 184, 190, 72, 6, 191, 184, 17, 204, 173, 165, 38, 249, 13, 244, 76, 78, 64, 38, 226, 202, 1, 234, 73, 224, 30, 30, 47, 186, 74, 217, 206, 249, 24, 157, 159, 206, 235, 229, 27, 72, 1, 76, 51, 62, 222, 30, 12, 207, 240, 24, 70, 93, 70, 83, 38, 47, 51, 86, 240, 60, 229, 71, 26, 224, 3, 26, 21, 22, 209, 23, 209, 101, 224, 47, 30, 112, 85, 242, 230, 34, 70, 187, 9, 230, 35, 215, 220, 189, 72, 223, 13, 82, 246, 38, 195, 90, 193, 213, 32, 22, 225, 189, 213, 246, 10, 242, 246, 86, 30, 236, 1, 202, 62, 86, 64, 0, 94, 92, 43, 77, 65, 1, 19, 43, 23, 18, 127, 58, 8, 249, 232, 227, 8, 41, 30, 199, 104, 248, 10, 64, 59, 200, 214, 6, 93, 54, 6, 91, 64, 104, 65, 224, 237, 67, 68, 55, 254, 85, 9, 209, 96, 9, 39, 242, 238, 61, 37, 47, 92, 34, 252, 218, 221, 3, 221, 227, 241, 86, 28, 60, 72, 65, 53, 89, 252, 71, 102, 100, 188, 93, 236, 194, 42, 107, 252, 23, 209, 113, 15, 10, 103, 21, 30, 85, 106, 196, 194, 97, 225, 48, 54, 74, 230, 95, 40, 226, 20, 245, 243, 119, 26, 51, 177, 33, 4, 208, 58, 49, 46, 61, 226, 31, 69, 214, 75, 55, 88, 179, 229, 61, 182, 221, 238, 180, 63, 173, 248, 253, 225, 1, 2, 84, 27, 252, 57, 27, 2, 236, 60, 10, 70, 73, 207, 201, 25, 60, 40, 252, 78, 76, 248, 216, 53, 38, 4, 202, 217, 239, 247, 234, 77, 179, 69, 73, 37, 221, 156, 76, 66, 79, 211, 232, 209, 228, 214, 58, 248, 37, 182, 193, 231, 240, 167, 28, 55, 242, 203, 255, 196, 195, 189, 206, 204, 242, 188, 174, 217, 58, 198, 201, 233, 37, 255, 171, 199, 46, 166, 4, 201, 246, 37, 11, 35, 208, 210, 44, 195, 27, 170, 201, 217, 160, 198, 157, 192, 219, 179, 198, 8, 172, 27, 25, 193, 250, 207, 168, 243, 249, 183, 27, 167, 46, 211, 206, 173, 208, 163, 143, 147, 171, 175, 23, 48, 24, 38, 194, 43, 187, 245, 38, 155, 242, 239, 15, 177, 234, 208, 206, 254, 196, 154, 2, 5, 67, 0, 238, 248, 36, 136, 212, 156, 241, 168, 66, 202, 48, 143, 244, 17, 147, 39, 11, 192, 51, 235, 225, 252, 56, 248, 43, 51, 6, 234, 5, 200, 69, 199, 216, 13, 79, 21, 168, 5, 199, 240, 242, 179, 15, 220, 26, 55, 193, 230, 27, 243, 218, 166, 34, 15, 195, 255, 55, 61, 8, 25, 51, 169, 54, 7, 23, 175, 239, 167, 61, 179, 69, 63, 3, 217, 254, 229, 252, 223, 30, 163, 170, 46, 164, 180, 252, 60, 69, 19, 23, 4, 203, 52, 45, 164, 245, 239, 210, 241, 52, 64, 11, 41, 236, 9, 229, 60, 248, 180, 250, 237, 53, 71, 171, 152, 89, 238, 175, 251, 46, 246, 220, 208, 214, 208, 192, 172, 161, 158, 173, 153, 231, 155, 170, 216, 69, 217, 67, 20, 6, 164, 153, 44, 248, 253, 253, 44, 22, 134, 63, 179, 176, 26, 158, 238, 186, 225, 190, 222, 234, 5, 4, 214, 202, 49, 220, 253, 178, 255, 55, 225, 181, 227, 172, 47, 211, 44, 235, 247, 43, 198, 253, 94, 80, 94, 173, 198, 12, 71, 72, 39, 215, 0, 57, 150, 163, 41, 190, 203, 186, 163, 19, 169, 197, 51, 211, 239, 185, 191, 213, 190, 62, 138, 55, 5, 228, 199, 222, 62, 156, 32, 8, 187, 204, 203, 228, 250, 21, 164, 60, 183, 59, 216, 15, 47, 253, 181, 200, 44, 230, 10, 23, 205, 250, 166, 1, 178, 198, 68, 220, 231, 174, 52, 185, 226, 3, 39, 47, 10, 253, 232, 213, 6, 197, 190, 229, 24, 221, 13, 38, 79, 173, 73, 238, 232, 86, 10, 30, 216, 68, 162, 77, 174, 239, 47, 87, 26, 197, 66, 152, 193, 109, 90, 233, 224, 49, 80, 213, 219, 2, 57, 170, 183, 48, 49, 22, 186, 117, 218, 212, 87, 43, 232, 246, 54, 53, 57, 35, 69, 17, 243, 95, 95, 54, 214, 188, 211, 189, 208, 34, 74, 47, 208, 171, 209, 29, 3, 205, 47, 15, 245, 60, 184, 13, 67, 43, 100, 219, 15, 98, 242, 32, 181, 32, 242, 18, 225, 210, 193, 177, 70, 41, 97, 12, 118, 239, 106, 42, 238, 34, 199, 67, 99, 21, 32, 215, 36, 121, 41, 12, 214, 17, 109, 44, 102, 222, 245, 225, 88, 229, 247, 25, 193, 37, 10, 190, 84, 164, 231, 27, 19, 127, 180, 208, 34, 6, 5, 233, 212, 101, 117, 21, 109, 106, 68, 209, 61, 216, 21, 39, 251, 219, 241, 212, 29, 20, 5, 235, 118, 74, 55, 86, 73, 22, 221, 65, 102, 83, 230, 99, 8, 95, 19, 117, 46, 27, 122, 13, 253, 198, 54, 231, 89, 232, 14, 91, 225, 94, 232, 25, 4, 186, 31, 197, 48, 71, 77, 12, 83, 84, 56, 220, 41, 69, 76, 249, 63, 69, 254, 226, 210, 57, 40, 111, 22, 254, 2, 194, 71, 228, 233, 229, 210, 197, 238, 41, 18, 71, 225, 215, 246, 254, 100, 99, 30, 108, 227, 246, 196, 68, 72, 16, 111, 244, 64, 8, 48, 231, 43, 44, 224, 249, 219, 216, 82, 27, 105, 17, 4, 81, 198, 215, 236, 168, 34, 237, 245, 50, 203, 200, 29, 100, 26, 69, 209, 41, 236, 226, 51, 190, 246, 240, 233, 9, 77, 202, 78, 36, 243, 52, 192, 208, 211, 46, 190, 55, 244, 70, 255, 85, 82, 0, 184, 155, 230, 38, 62, 21, 214, 240, 202, 238, 6, 51, 68, 57, 207, 37, 77, 233, 58, 11, 55, 209, 243, 215, 29, 23, 48, 83, 27, 251, 71, 35, 24, 236, 23, 33, 66, 21, 13, 233, 100, 20, 248, 78, 217, 245, 111, 110, 43, 48, 107, 55, 248, 216, 60, 187, 189, 27, 184, 219, 193, 227, 165, 3, 15, 247, 4, 45, 227, 211, 9, 214, 18, 201, 78, 158, 227, 33, 2, 37, 200, 251, 223, 95, 47, 216, 201, 60, 4, 235, 229, 61, 220, 77, 154, 25, 176, 22, 187, 228, 227, 54, 205, 219, 55, 218, 2, 54, 93, 176, 85, 216, 242, 20, 86, 233, 194, 29, 251, 157, 76, 65, 70, 120, 29, 125, 136, 34, 202, 14, 145, 5, 193, 214, 55, 204, 31, 34, 255, 192, 244, 216, 69, 93, 245, 68, 8, 35, 135, 235, 35, 182, 24, 207, 46, 237, 116, 27, 243, 60, 190, 26, 192, 191, 233, 3, 187, 240, 105, 94, 48, 27, 117, 35, 8, 198, 189, 233, 207, 110, 232, 101, 75, 243, 229, 172, 220, 49, 147, 230, 214, 205, 205, 186, 60, 23, 4, 186, 200, 138, 188, 8, 68, 179, 33, 230, 228, 21, 199, 78, 252, 85, 129, 27, 126, 48, 81, 224, 99, 66, 236, 5, 68, 50, 31, 195, 188, 168, 4, 48, 56, 93, 227, 231, 17, 81, 12, 12, 101, 45, 185, 79, 34, 2, 37, 18, 77, 208, 33, 46, 189, 247, 57, 113, 132, 250, 169, 72, 174, 193, 40, 54, 178, 170, 244, 230, 39, 65, 61, 240, 38, 13, 5, 219, 235, 9, 183, 102, 2, 170, 11, 72, 97, 94, 95, 215, 243, 225, 156, 156, 7, 37, 40, 250, 157, 43, 186, 28, 230, 5, 26, 202, 44, 86, 2, 73, 121, 36, 23, 220, 93, 225, 58, 70, 178, 49, 76, 67, 253, 58, 179, 101, 173, 37, 226, 225, 185, 170, 40, 34, 11, 210, 55, 53, 215, 68, 221, 249, 226, 230, 155, 46, 88, 218, 239, 190, 69, 59, 218, 70, 180, 22, 217, 213, 253, 172, 96, 223, 52, 175, 65, 93, 17, 191, 229, 230, 22, 79, 201, 13, 241, 209, 48, 253, 23, 199, 51, 204, 202, 185, 52, 79, 43, 10, 183, 36, 205, 219, 49, 236, 172, 204, 242, 88, 36, 239, 49, 251, 106, 87, 252, 216, 99, 90, 213, 98, 20, 158, 8, 25, 123, 66, 48, 191, 169, 51, 252, 7, 187, 163, 66, 103, 203, 183, 245, 97, 255, 66, 101, 212, 178, 240, 15, 190, 243, 56, 131, 55, 227, 47, 200, 34, 38, 173, 200, 205, 203, 62, 216, 54, 175, 196, 206, 193, 227, 163, 226, 38, 214, 180, 218, 19, 215, 47, 79, 1, 244, 99, 189, 205, 7, 173, 84, 48, 112, 247, 195, 142, 186, 207, 158, 57, 180, 210, 243, 109, 254, 66, 237, 87, 195, 117, 224, 209, 97, 92, 42, 211, 193, 69, 190, 95, 62, 209, 247, 167, 196, 175, 195, 90, 48, 87, 45, 19, 162, 46, 24, 190, 191, 243, 206, 8, 68, 145, 17, 3, 248, 52, 77, 87, 30, 9, 6, 71, 228, 24, 60, 188, 94, 213, 82, 39, 19, 13, 179, 237, 92, 141, 202, 56, 3, 55, 2, 230, 31, 5, 24, 210, 30, 221, 41, 4, 229, 44, 42, 32, 58, 245, 3, 56, 61, 29, 222, 191, 247, 82, 196, 159, 245, 61, 217, 26, 7, 49, 3, 14, 115, 1, 231, 35, 124, 237, 53, 21, 97, 107, 235, 8, 254, 14, 9, 203, 39, 14, 113, 13, 222, 105, 5, 151, 13, 24, 33, 92, 34, 148, 3, 56, 233, 187, 44, 90, 35, 73, 43, 27, 137, 73, 177, 38, 231, 249, 60, 163, 60, 166, 245, 168, 60, 1, 253, 224, 53, 10, 158, 87, 75, 228, 61, 175, 245, 166, 29, 236, 87, 150, 240, 244, 157, 20, 12, 183, 30, 87, 10, 82, 216, 40, 49, 11, 219, 72, 247, 202, 38, 4, 57, 15, 63, 174, 217, 41, 29, 56, 174, 21, 242, 39, 150, 25, 218, 60, 188, 42, 138, 229, 144, 86, 194, 164, 42, 219, 249, 211, 147, 145, 67, 60, 1, 17, 62, 11, 171, 165, 221, 45, 80, 10, 176, 77, 85, 144, 158, 24, 241, 71, 182, 241, 229, 187, 137, 204, 93, 179, 169, 26, 229, 229, 194, 229, 84, 95, 255, 62, 51, 23, 21, 28, 13, 101, 142, 5, 144, 228, 59, 169, 249, 193, 66, 207, 168, 66, 82, 204, 235, 135, 213, 220, 212, 51, 8, 93, 237, 211, 238, 232, 91, 249, 87, 139, 54, 79, 39, 40, 191, 16, 196, 226, 142, 1, 29, 150, 254, 96, 28, 197, 239, 172, 166, 215, 10, 157, 15, 7, 78, 188, 225, 243, 4, 63, 94, 75, 42, 137, 49, 179, 145, 75, 154, 199, 248, 184, 175, 28, 138, 171, 28, 194, 21, 136, 255, 227, 180, 188, 84, 240, 186, 243, 146, 23, 157, 40, 144, 19, 72, 21, 139, 57, 57, 142, 243, 19, 180, 21, 234, 75, 193, 229, 175, 0, 212, 222, 22, 210, 6, 236, 92, 86, 76, 231, 15, 160, 158, 206, 93, 224, 29, 53, 153, 176, 68, 241, 39, 235, 198, 223, 195, 228, 137, 228, 167, 196, 64, 129, 80, 55, 151, 8, 73, 162, 231, 55, 240, 198, 185, 235, 43, 77, 240, 180, 54, 241, 38, 234, 230, 142, 38, 50, 35, 200, 82, 79, 91, 191, 154, 80, 186, 173, 174, 196, 243, 200, 94, 200, 0, 82, 36, 142, 207, 26, 104, 211, 173, 233, 241, 151, 179, 202, 17, 137, 137, 34, 52, 69, 194, 200, 255, 209, 15, 189, 135, 27, 86, 191, 195, 82, 15, 144, 22, 17, 36, 96, 214, 14, 145, 70, 197, 63, 20, 33, 17, 240, 56, 255, 142, 9, 183, 69, 5, 165, 18, 142, 3, 62, 60, 146, 26, 161, 15, 198, 201, 145, 209, 206, 61, 36, 210, 15, 71, 156, 46, 239, 11, 45, 92, 144, 248, 211, 190, 44, 8, 93, 46, 91, 37, 221, 147, 225, 153, 24, 208, 47, 44, 191, 253, 186, 47, 145, 243, 48, 21, 100, 153, 35, 32, 68, 230, 205, 152, 171, 40, 198, 155, 169, 255, 244, 203, 191, 54, 243, 148, 193, 153, 220, 188, 234, 69, 184, 67, 162, 199, 68, 220, 226, 158, 2, 16, 61, 236, 165, 181, 60, 204, 255, 173, 218, 24, 214, 44, 152, 210, 51, 247, 7, 92, 60, 28, 62, 80, 54, 139, 195, 247, 77, 251, 148, 32, 62, 131, 83, 74, 193, 29, 149, 148, 181, 163, 210, 218, 135, 2, 23, 155, 72, 246, 14, 220, 235, 24, 3, 168, 230, 153, 57, 254, 188, 27, 243, 212, 95, 82, 87, 205, 36, 225, 231, 39, 251, 242, 221, 38, 53, 137, 155, 31, 228, 7, 214, 182, 240, 176, 234, 42, 73, 162, 237, 52, 21, 254, 210, 38, 70, 192, 85, 228, 4, 166, 39, 231, 44, 4, 10, 211, 199, 17, 246, 143, 164, 177, 184, 208, 187, 253, 231, 254, 70, 239, 31, 31, 150, 168, 69, 244, 242, 8, 37, 5, 15, 232, 196, 203, 209, 208, 226, 227, 186, 42, 178, 241, 58, 229, 233, 25, 38, 181, 26, 215, 45, 145, 9, 238, 26, 232, 55, 39, 220, 31, 233, 198, 50, 173, 33, 18, 182, 213, 182, 11, 160, 187, 58, 143, 191, 214, 145, 214, 191, 50, 238, 235, 23, 170, 223, 67, 248, 47, 246, 41, 219, 165, 202, 163, 236, 55, 20, 242, 50, 214, 253, 213, 236, 43, 10, 163, 35, 176, 79, 214, 252, 29, 87, 68, 202, 240, 250, 78, 250, 74, 1, 194, 13, 38, 78, 14, 194, 187, 8, 204, 239, 65, 229, 58, 195, 255, 31, 21, 37, 32, 198, 198, 70, 13, 41, 195, 222, 195, 0, 246, 39, 5, 226, 81, 64, 80, 189, 6, 17, 127, 70, 65, 65, 13, 11, 45, 113, 19, 24, 45, 200, 81, 75, 65, 66, 19, 7, 62, 73, 60, 37, 26, 235, 91, 226, 12, 218, 219, 233, 181, 0, 22, 222, 57, 28, 230, 237, 207, 83, 54, 242, 181, 213, 190, 218, 203, 197, 54, 251, 41, 212, 35, 250, 233, 3, 248, 247, 234, 225, 194, 55, 238, 189, 234, 61, 79, 75, 12, 115, 9, 21, 15, 3, 48, 206, 106, 112, 231, 14, 55, 14, 247, 69, 74, 77, 36, 55, 91, 44, 215, 207, 41, 11, 29, 197, 165, 40, 7, 69, 36, 69, 9, 70, 254, 211, 250, 38, 255, 49, 78, 190, 243, 204, 55, 71, 230, 66, 52, 185, 238, 82, 212, 36, 31, 31, 168, 225, 115, 64, 229, 186, 177, 25, 58, 246, 50, 234, 180, 214, 92, 98, 246, 227, 203, 32, 33, 71, 63, 79, 29, 81, 36, 84, 3, 57, 63, 225, 252, 53, 33, 15, 231, 98, 227, 35, 37, 1, 255, 244, 81, 60, 62, 24, 14, 248, 202, 81, 85, 213, 12, 51, 186, 10, 46, 83, 240, 75, 174, 208, 232, 243, 205, 30, 210, 51, 1, 9, 177, 54, 25, 203, 70, 212, 13, 37, 37, 226, 206, 194, 208, 211, 201, 219, 26, 218, 10, 57, 77, 22, 60, 231, 63, 254, 226, 211, 194, 7, 203, 13, 230, 55, 62, 234, 32, 9, 61, 18, 56, 79, 51, 171, 233, 223, 180, 70, 214, 183, 228, 86, 17, 80, 255, 42, 155, 42, 209, 19, 240, 218, 22, 242, 159, 1, 173, 169, 65, 159, 201, 8, 58, 40, 42, 218, 182, 241, 16, 176, 245, 33, 66, 239, 194, 82, 174, 34, 187, 169, 246, 26, 181, 21, 59, 242, 6, 13, 62, 70, 58, 223, 25, 13, 240, 220, 0, 15, 55, 65, 250, 188, 237, 188, 1, 73, 238, 207, 210, 243, 231, 234, 48, 233, 194, 220, 251, 223, 9, 214, 14, 171, 16, 227, 244, 172, 151, 9, 144, 25, 218, 51, 243, 175, 80, 2, 200, 81, 252, 243, 2, 0, 53, 220, 6, 9, 218, 209, 236, 27, 255, 163, 172, 72, 21, 192, 63, 186, 236, 199, 232, 232, 19, 205, 238, 157, 163, 208, 30, 52, 15, 168, 222, 171, 192, 34, 32, 179, 158, 230, 182, 52, 223, 224, 25, 193, 181, 193, 51, 226, 196, 185, 239, 3, 205, 225, 4, 238, 233, 3, 33, 210, 245, 21, 189, 149, 67, 169, 180, 226, 229, 176, 219, 235, 184, 236, 22, 212, 215, 26, 53, 244, 151, 238, 198, 223, 198, 78, 207, 47, 73, 43, 54, 31, 60, 188, 49, 85, 8, 208, 221, 112, 97, 171, 206, 14, 41, 38, 97, 19, 243, 202, 11, 248, 71, 72, 73, 189, 232, 82, 199, 61, 25, 63, 81, 230, 94, 6, 201, 73, 185, 11, 220, 15, 206, 247, 169, 242, 187, 235, 26, 192, 234, 3, 85, 10, 65, 28, 168, 253, 191, 184, 50, 227, 44, 160, 94, 203, 65, 194, 173, 21, 222, 209, 48, 222, 72, 184, 211, 10, 216, 46, 240, 64, 223, 228, 85, 11, 168, 245, 232, 82, 171, 29, 197, 79, 5, 69, 165, 77, 184, 67, 179, 42, 60, 74, 230, 53, 254, 194, 60, 76, 214, 35, 194, 254, 185, 177, 42, 37, 198, 242, 189, 146, 71, 254, 8, 26, 52, 228, 11, 189, 63, 227, 202, 55, 147, 36, 160, 201, 255, 165, 42, 146, 1, 192, 224, 242, 252, 204, 49, 24, 63, 26, 185, 221, 22, 244, 251, 184, 184, 247, 43, 212, 205, 59, 189, 211, 204, 58, 203, 43, 161, 78, 70, 225, 78, 20, 90, 243, 222, 59, 70, 173, 54, 14, 188, 27, 200, 16, 204, 54, 15, 228, 176, 57, 200, 18, 161, 237, 0, 1, 142, 67, 61, 43, 10, 27, 166, 182, 231, 39, 179, 2, 31, 159, 143, 230, 35, 32, 139, 172, 59, 51, 202, 169, 60, 214, 171, 39, 62, 35, 51, 177, 39, 208, 84, 9, 21, 28, 76, 231, 217, 222, 57, 7, 206, 239, 83, 243, 43, 49, 165, 189, 217, 47, 168, 159, 33, 24, 181, 145, 210, 230, 21, 196, 209, 94, 6, 234, 249, 186, 31, 157, 85, 64, 246, 2, 173, 1, 230, 46, 20, 206, 20, 21, 54, 33, 234, 235, 51, 64, 163, 129, 38, 53, 35, 233, 193, 41, 70, 165, 234, 227, 39, 243, 240, 177, 255, 174, 142, 189, 3, 82, 228, 38, 140, 165, 30, 224, 214, 233, 69, 215, 77, 150, 58, 24, 25, 92, 16, 42, 24, 252, 239, 165, 52, 227, 243, 47, 254, 28, 252, 227, 29, 199, 22, 237, 12, 12, 32, 8, 232, 244, 178, 52, 167, 227, 35, 5, 11, 84, 64, 78, 255, 254, 190, 18, 84, 214, 67, 52, 229, 96, 146, 13, 1, 211, 15, 12, 25, 4, 0, 69, 81, 251, 19, 213, 183, 187, 71, 222, 6, 206, 226, 19, 216, 234, 105, 66, 19, 164, 211, 79, 13, 20, 14, 62, 78, 46, 227, 184, 6, 10, 249, 91, 212, 44, 209, 164, 58, 135, 233, 8, 167, 204, 223, 78, 246, 166, 183, 100, 63, 207, 57, 8, 228, 67, 2, 238, 207, 91, 57, 53, 247, 27, 190, 36, 18, 203, 102, 229, 81, 51, 199, 246, 233, 221, 71, 229, 53, 234, 95, 252, 232, 191, 209, 228, 31, 32, 3, 14, 246, 229, 36, 216, 207, 214, 18, 224, 219, 165, 85, 183, 85, 58, 25, 195, 147, 163, 35, 193, 180, 65, 64, 231, 111, 240, 63, 244, 47, 5, 20, 16, 87, 0, 42, 78, 63, 89, 39, 5, 236, 219, 250, 235, 40, 188, 217, 51, 50, 216, 206, 2, 240, 155, 211, 36, 21, 37, 43, 186, 84, 25, 27, 24, 172, 244, 61, 66, 72, 98, 226, 250, 192, 198, 227, 42, 31, 191, 21, 2, 177, 7, 155, 250, 4, 247, 245, 43, 93, 26, 49, 49, 208, 100, 175, 200, 54, 73, 36, 215, 153, 43, 204, 5, 189, 30, 229, 26, 67, 178, 173, 152, 205, 95, 94, 225, 175, 204, 207, 49, 245, 90, 195, 181, 81, 231, 62, 85, 158, 244, 231, 146, 17, 244, 199, 66, 41, 23, 215, 143, 34, 199, 194, 58, 43, 169, 88, 5, 160, 7, 76, 255, 212, 87, 8, 67, 64, 224, 204, 207, 64, 55, 164, 222, 214, 216, 0, 28, 141, 224, 150, 155, 202, 51, 161, 218, 49, 209, 88, 54, 164, 30, 189, 40, 28, 215, 11, 73, 226, 251, 60, 9, 143, 52, 12, 34, 65, 1, 252, 47, 53, 41, 146, 61, 66, 34, 88, 205, 200, 188, 40, 141, 196, 11, 12, 89, 40, 146, 147, 226, 196, 22, 180, 195, 154, 182, 159, 74, 190, 77, 76, 71, 205, 31, 203, 90, 192, 242, 25, 88, 140, 99, 40, 195, 41, 144, 77, 151, 216, 49, 207, 237, 241, 255, 82, 192, 166, 91, 60, 214, 144, 60, 229, 162, 240, 80, 172, 35, 41, 58, 191, 173, 68, 165, 234, 159, 172, 156, 199, 143, 14, 216, 171, 222, 178, 13, 80, 1, 27, 45, 24, 19, 31, 86, 79, 168, 62, 8, 167, 143, 21, 156, 26, 135, 85, 68, 86, 98, 162, 45, 102, 139, 227, 241, 252, 176, 219, 173, 207, 25, 21, 194, 146, 212, 50, 239, 252, 169, 180, 221, 22, 67, 56, 224, 193, 207, 196, 30, 85, 22, 236, 72, 159, 144, 0, 147, 83, 39, 142, 143, 203, 3, 207, 5, 231, 182, 218, 228, 23, 202, 60, 230, 165, 65, 135, 89, 62, 199, 85, 187, 81, 215, 143, 146, 150, 139, 69, 18, 32, 197, 56, 89, 168, 153, 60, 77, 147, 172, 227, 98, 27, 42, 26, 75, 210, 53, 12, 192, 224, 80, 15, 130, 26, 208, 175, 81, 252, 49, 144, 180, 58, 241, 140, 32, 155, 78, 85, 67, 226, 52, 136, 56, 162, 7, 199, 240, 66, 254, 252, 38, 180, 209, 241, 135, 216, 18, 55, 249, 248, 0, 176, 207, 240, 168, 242, 202, 129, 191, 227, 218, 130, 130, 203, 139, 230, 6, 146, 65, 149, 198, 68, 43, 251, 22, 255, 155, 176, 188, 205, 188, 157, 89, 145, 26, 228, 167, 234, 248, 87, 17, 227, 255, 63, 220, 236, 182, 243, 236, 203, 209, 219, 212, 50, 194, 72, 153, 148, 160, 66, 14, 69, 223, 173, 135, 42, 194, 184, 6, 245, 188, 239, 74, 150, 49, 57, 70, 14, 22, 79, 54, 60, 196, 30, 57, 22, 181, 54, 198, 40, 146, 166, 64, 103, 82, 181, 232, 86, 81, 96, 162, 215, 22, 43, 9, 149, 155, 253, 254, 3, 217, 0, 24, 188, 241, 169, 72, 169, 40, 86, 14, 245, 10, 187, 3, 159, 195, 204, 60, 52, 167, 183, 3, 189, 36, 186, 65, 79, 188, 226, 44, 155, 59, 38, 76, 230, 163, 23, 221, 93, 251, 223, 149, 86, 39, 233, 165, 63, 191, 247, 136, 38, 228, 72, 141, 77, 245, 3, 44, 87, 18, 96, 44, 219, 176, 15, 139, 26, 167, 1, 171, 50, 181, 18, 229, 241, 27, 28, 75, 138, 4, 243, 188, 151, 144, 249, 226, 19, 187, 93, 255, 219, 245, 238, 71, 134, 37, 220, 80, 212, 143, 50, 59, 240, 186, 253, 135, 53, 49, 133, 7, 164, 32, 96, 154, 42, 93, 24, 39, 136, 30, 63, 20, 140, 199, 253, 237, 246, 83, 214, 246, 84, 40, 176, 225, 4, 219, 255, 199, 160, 42, 238, 172, 31, 26, 219, 252, 18, 30, 65, 255, 172, 211, 203, 188, 72, 56, 250, 24, 172, 177, 159, 15, 40, 25, 86, 36, 68, 8, 164, 10, 187, 228, 172, 15, 61, 171, 56, 34, 221, 184, 203, 208, 241, 152, 11, 192, 180, 208, 97, 41, 194, 92, 44, 167, 199, 149, 18, 228, 154, 196, 139, 217, 191, 87, 74, 250, 33, 222, 197, 4, 10, 14, 236, 156, 50, 241, 182, 33, 72, 230, 70, 239, 44, 11, 177, 191, 223, 235, 46, 63, 192, 77, 11, 207, 214, 2, 41, 5, 207, 7, 204, 188, 167, 202, 249, 35, 232, 22, 234, 214, 249, 32, 225, 214, 234, 68, 187, 164, 75, 168, 178, 15, 198, 70, 50, 230, 15, 42, 206, 195, 190, 13, 169, 244, 233, 204, 1, 170, 3, 204, 232, 46, 195, 16, 217, 36, 246, 22, 197, 15, 244, 247, 167, 25, 33, 210, 42, 199, 253, 2, 187, 39, 241, 55, 160, 210, 187, 28, 254, 6, 218, 179, 13, 19, 238, 177, 73, 47, 255, 228, 61, 244, 9, 26, 28, 4, 88, 249, 38, 237, 166, 34, 83, 43, 60, 220, 2, 45, 63, 104, 176, 86, 179, 195, 205, 225, 48, 12, 51, 66, 175, 37, 226, 207, 216, 25, 245, 238, 85, 57, 97, 122, 76, 29, 229, 13, 6, 231, 181, 38, 207, 209, 50, 250, 191, 182, 71, 20, 21, 218, 197, 76, 1, 19, 2, 36, 9, 211, 203, 41, 210, 51, 105, 67, 174, 244, 81, 197, 233, 245, 246, 246, 254, 2, 202, 218, 74, 189, 49, 125, 127, 215, 28, 55, 203, 97, 9, 22, 44, 69, 14, 13, 67, 99, 88, 233, 42, 228, 248, 180, 78, 214, 27, 223, 12, 217, 38, 28, 213, 247, 49, 4, 165, 29, 80, 66, 238, 85, 254, 83, 81, 36, 25, 21, 64, 211, 187, 55, 18, 247, 8, 216, 45, 232, 213, 122, 63, 94, 84, 201, 88, 238, 197, 108, 202, 17, 195, 232, 242, 57, 51, 255, 66, 220, 8, 73, 80, 11, 99, 30, 214, 74, 28, 203, 79, 52, 253, 54, 171, 26, 33, 97, 209, 43, 32, 229, 172, 61, 242, 189, 50, 214, 231, 197, 81, 185, 170, 10, 199, 30, 209, 187, 154, 216, 85, 56, 2, 201, 72, 68, 189, 231, 71, 213, 25, 232, 73, 220, 85, 50, 212, 79, 67, 240, 46, 195, 242, 227, 208, 232, 173, 182, 42, 199, 38, 181, 159, 222, 239, 194, 252, 236, 44, 167, 176, 196, 255, 43, 4, 241, 157, 246, 6, 43, 58, 87, 41, 13, 58, 157, 250, 200, 199, 34, 230, 163, 21, 57, 28, 195, 180, 66, 213, 236, 12, 38, 224, 239, 146, 252, 38, 230, 22, 7, 42, 70, 161, 37, 14, 242, 2, 78, 234, 54, 45, 75, 15, 65, 219, 185, 173, 248, 10, 36, 219, 247, 4, 251, 200, 14, 220, 191, 205, 10, 171, 8, 187, 180, 226, 29, 191, 234, 240, 146, 8, 193, 207, 52, 28, 59, 219, 245, 67, 190, 250, 55, 204, 203, 13, 211, 217, 29, 50, 206, 26, 198, 15, 23, 254, 195, 175, 161, 213, 23, 82, 188, 237, 89, 1, 81, 176, 215, 4, 24, 176, 226, 90, 40, 53, 51, 27, 3, 235, 249, 8, 14, 37, 65, 177, 66, 11, 233, 201, 167, 220, 212, 85, 216, 41, 181, 247, 33, 189, 169, 196, 162, 175, 167, 70, 14, 98, 41, 177, 42, 8, 105, 239, 204, 161, 200, 200, 201, 147, 86, 188, 247, 26, 206, 189, 4, 161, 44, 195, 89, 237, 150, 12, 146, 191, 64, 45, 30, 162, 8, 69, 6, 191, 193, 23, 62, 89, 62, 157, 24, 16, 203, 49, 158, 87, 252, 75, 101, 248, 86, 22, 243, 249, 29, 154, 65, 56, 207, 141, 97, 67, 42, 82, 44, 180, 16, 51, 191, 89, 15, 205, 25, 181, 83, 149, 135, 39, 197, 18, 41, 132, 81, 51, 54, 203, 62, 95, 53, 31, 194, 190, 177, 3, 176, 79, 152, 202, 50, 228, 235, 186, 17, 82, 70, 10, 163, 242, 68, 6, 65, 39, 197, 236, 176, 225, 177, 194, 216, 84, 247, 148, 137, 227, 191, 246, 229, 68, 156, 33, 48, 8, 161, 86, 161, 81, 179, 73, 251, 234, 66, 164, 173, 16, 184, 247, 180, 154, 59, 229, 237, 42, 208, 177, 161, 162, 94, 44, 184, 245, 7, 84, 215, 232, 63, 148, 83, 60, 137, 206, 204, 5, 167, 141, 153, 228, 63, 155, 17, 214, 30, 223, 144, 37, 88, 198, 219, 210, 187, 215, 61, 157, 248, 182, 159, 210, 83, 33, 83, 228, 154, 63, 237, 174, 34, 165, 253, 211, 15, 22, 165, 175, 34, 217, 94, 27, 188, 5, 94, 215, 235, 217, 69, 39, 149, 27, 172, 185, 180, 165, 194, 45, 144, 186, 251, 220, 200, 178, 96, 64, 139, 232, 42, 15, 24, 217, 24, 77, 214, 228, 54, 151, 222, 9, 139, 46, 71, 4, 55, 248, 135, 98, 86, 3, 163, 101, 81, 226, 160, 6, 176, 178, 146, 154, 87, 168, 23, 131, 159, 76, 65, 78, 2, 242, 163, 197, 156, 52, 13, 183, 82, 42, 63, 226, 173, 208, 180, 219, 61, 47, 238, 149, 195, 219, 212, 71, 161, 201, 53, 32, 86, 59, 88, 152, 13, 152, 93, 85, 2, 179, 1, 199, 100, 55, 35, 21, 10, 163, 195, 7, 242, 147, 10, 193, 77, 66, 43, 165, 189, 83, 129, 209, 85, 42, 60, 78, 2, 70, 151, 199, 48, 155, 95, 32, 151, 18, 199, 214, 72, 252, 24, 18, 6, 179, 163, 222, 236, 16, 26, 150, 61, 246, 52, 187, 138, 18, 182, 37, 216, 197, 95, 138, 90, 243, 195, 84, 33, 216, 181, 216, 38, 185, 29, 65, 243, 97, 86, 238, 31, 100, 88, 99, 218, 253, 185, 10, 244, 179, 208, 23, 53, 218, 212, 228, 63, 16, 239, 39, 143, 195, 131, 248, 5, 85, 176, 95, 211, 81, 159, 202, 159, 173, 99, 103, 251, 229, 159, 71, 51, 71, 25, 242, 83, 150, 222, 167, 36, 227, 57, 136, 194, 87, 231, 70, 76, 190, 46, 75, 234, 76, 77, 71, 183, 102, 230, 161, 195, 136, 234, 90, 91, 214, 40, 205, 15, 64, 226, 217, 238, 43, 209, 246, 16, 54, 238, 66, 77, 151, 140, 67, 178, 2, 222, 170, 185, 133, 147, 156, 233, 187, 207, 92, 53, 45, 56, 17, 238, 160, 249, 40, 179, 98, 219, 138, 168, 170, 43, 91, 162, 141, 200, 54, 166, 230, 3, 246, 70, 68, 82, 211, 20, 6, 201, 171, 228, 210, 143, 220, 190, 57, 164, 19, 17, 31, 240, 230, 214, 232, 194, 160, 83, 31, 28, 10, 221, 71, 138, 68, 255, 71, 71, 65, 173, 221, 175, 233, 193, 62, 198, 155, 58, 13, 221, 52, 104, 153, 95, 31, 182, 212, 64, 213, 232, 249, 156, 220, 31, 242, 75, 61, 254, 191, 206, 248, 244, 44, 208, 57, 23, 47, 136, 61, 52, 234, 31, 156, 146, 46, 245, 227, 231, 207, 220, 225, 226, 247, 20, 179, 193, 83, 215, 87, 5, 172, 166, 147, 252, 231, 205, 16, 251, 143, 78, 238, 235, 19, 20, 195, 178, 86, 56, 13, 227, 251, 143, 25, 222, 25, 175, 153, 85, 71, 25, 39, 28, 3, 149, 151, 175, 18, 15, 171, 92, 91, 216, 138, 53, 164, 27, 205, 236, 61, 88, 6, 88, 61, 28, 198, 47, 249, 50, 30, 167, 236, 18, 44, 215, 170, 7, 7, 170, 146, 251, 190, 222, 166, 67, 76, 3, 83, 201, 32, 89, 219, 183, 59, 86, 139, 74, 237, 182, 175, 54, 228, 67, 58, 254, 196, 38, 150, 148, 165, 235, 243, 35, 139, 163, 248, 22, 37, 30, 65, 62, 157, 177, 68, 77, 22, 204, 181, 233, 160, 189, 223, 166, 141, 148, 157, 198, 228, 60, 162, 192, 144, 21, 147, 147, 86, 144, 21, 211, 65, 89, 178, 194, 150, 176, 88, 174, 227, 253, 174, 54, 160, 157, 89, 167, 139, 152, 45, 36, 185, 164, 206, 12, 45, 239, 75, 14, 218, 202, 182, 56, 16, 33, 136, 150, 216, 218, 27, 51, 133, 14, 161, 72, 44, 150, 181, 62, 78, 252, 214, 176, 199, 236, 142, 18, 214, 227, 185, 229, 58, 254, 236, 199, 8, 254, 48, 222, 139, 51, 193, 245, 61, 76, 248, 241, 196, 57, 209, 34, 152, 238, 42, 224, 13, 255, 235, 131, 61, 220, 212, 24, 20, 93, 235, 72, 6, 58, 37, 63, 30, 222, 15, 195, 2, 182, 74, 80, 169, 82, 36, 22, 160, 40, 226, 156, 192, 68, 182, 198, 155, 10, 30, 185, 59, 179, 210, 31, 53, 182, 237, 40, 202, 151, 175, 57, 253, 86, 178, 80, 82, 158, 80, 15, 166, 200, 247, 90, 198, 230, 219, 164, 135, 246, 46, 54, 249, 190, 147, 138, 252, 32, 238, 222, 241, 174, 136, 229, 163, 253, 93, 235, 184, 155, 194, 224, 11, 217, 34, 185, 252, 74, 254, 68, 209, 219, 7, 142, 5, 235, 221, 178, 63, 164, 232, 247, 32, 4, 22, 66, 229, 145, 166, 166, 75, 74, 49, 136, 42, 67, 43, 219, 227, 163, 223, 236, 64, 39, 221, 234, 66, 14, 15, 68, 149, 6, 241, 74, 71, 92, 46, 138, 68, 198, 40, 147, 14, 159, 191, 53, 46, 145, 64, 30, 62, 228, 176, 235, 19, 47, 60, 142, 231, 236, 252, 247, 250, 49, 72, 168, 13, 94, 178, 54, 85, 243, 223, 129, 248, 202, 63, 67, 5, 241, 175, 48, 65, 174, 21, 211, 219, 253, 215, 173, 244, 252, 92, 252, 42, 245, 154, 225, 97, 235, 13, 31, 72, 150, 77, 200, 16, 95, 156, 221, 26, 214, 47, 73, 208, 69, 56, 252, 221, 211, 220, 50, 179, 31, 141, 252, 55, 139, 220, 30, 185, 249, 64, 242, 22, 172, 187, 243, 222, 215, 209, 173, 246, 81, 70, 138, 154, 48, 39, 185, 162, 12, 189, 236, 242, 242, 44, 196, 221, 49, 47, 148, 200, 234, 163, 184, 138, 195, 196, 194, 179, 97, 176, 251, 67, 23, 205, 210, 47, 21, 13, 230, 177, 214, 13, 43, 251, 77, 162, 253, 247, 25, 193, 51, 22, 55, 152, 61, 51, 85, 4, 31, 116, 37, 223, 226, 221, 147, 66, 90, 227, 105, 234, 201, 220, 12, 68, 175, 194, 107, 149, 21, 49, 65, 191, 6, 69, 248, 249, 73, 127, 195, 70, 41, 195, 39, 51, 209, 45, 95, 42, 63, 39, 189, 77, 37, 255, 26, 212, 77, 96, 207, 13, 41, 108, 227, 15, 13, 41, 91, 194, 44, 33, 67, 181, 143, 82, 55, 157, 72, 85, 222, 87, 170, 215, 97, 93, 231, 60, 208, 42, 37, 235, 45, 57, 74, 144, 237, 76, 248, 67, 72, 157, 32, 208, 228, 40, 66, 213, 46, 167, 51, 207, 243, 32, 89, 250, 51, 84, 254, 196, 252, 217, 201, 161, 53, 19, 36, 187, 250, 84, 18, 15, 155, 53, 189, 247, 212, 178, 199, 70, 235, 2, 147, 89, 32, 163, 152, 158, 66, 236, 205, 172, 82, 174, 175, 220, 170, 206, 211, 182, 206, 9, 3, 177, 200, 165, 149, 97, 249, 145, 253, 176, 174, 15, 75, 201, 59, 42, 236, 177, 59, 55, 239, 181, 194, 174, 240, 17, 98, 27, 58, 63, 93, 169, 20, 190, 225, 171, 196, 250, 255, 40, 59, 248, 2, 24, 1, 12, 88, 65, 160, 169, 13, 95, 187, 26, 70, 245, 74, 50, 27, 253, 89, 27, 58, 178, 165, 130, 12, 235, 151, 0, 222, 159, 58, 245, 143, 29, 193, 198, 225, 30, 49, 203, 40, 199, 41, 93, 39, 52, 12, 216, 52, 183, 186, 11, 76, 100, 15, 54, 37, 252, 119, 132, 48, 178, 37, 27, 104, 245, 150, 226, 255, 198, 96, 21, 41, 201, 155, 80, 133, 169, 139, 210, 116, 54, 132, 34, 223, 43, 43, 60, 153, 162, 57, 20, 24, 36, 247, 56, 247, 33, 168, 167, 97, 161, 27, 31, 244, 100, 245, 8, 173, 200, 189, 250, 25, 92, 169, 63, 10, 86, 245, 47, 36, 73, 17, 201, 146, 64, 222, 199, 77, 70, 194, 238, 83, 87, 166, 7, 26, 201, 150, 178, 251, 82, 185, 43, 73, 198, 45, 147, 175, 239, 19, 214, 176, 165, 71, 205, 34, 29, 4, 199, 81, 1, 92, 249, 89, 43, 237, 191, 252, 150, 223, 234, 64, 163, 94, 171, 245, 11, 74, 250, 58, 50, 228, 235, 234, 244, 64, 200, 30, 165, 216, 162, 250, 9, 78, 58, 165, 80, 185, 4, 153, 178, 87, 46, 183, 62, 20, 28, 170, 36, 147, 183, 8, 65, 42, 71, 47, 26, 19, 232, 96, 45, 53, 242, 250, 38, 3, 21, 16, 227, 135, 170, 163, 163, 229, 102, 207, 51, 40, 231, 12, 154, 1, 80, 205, 10, 148, 171, 10, 146, 221, 229, 162, 179, 223, 182, 69, 13, 23, 86, 69, 245, 230, 200, 1, 209, 60, 29, 142, 145, 216, 44, 167, 193, 252, 24, 192, 62, 75, 45, 3, 168, 46, 164, 73, 80, 26, 252, 139, 6, 50, 26, 2, 7, 20, 226, 47, 224, 31, 198, 237, 33, 11, 215, 60, 230, 170, 217, 38, 109, 247, 105, 229, 67, 181, 35, 241, 23, 249, 51, 18, 27, 31, 164, 45, 8, 177, 94, 14, 243, 55, 36, 207, 47, 41, 195, 212, 39, 89, 170, 35, 222, 232, 84, 159, 236, 153, 73, 104, 199, 185, 156, 217, 230, 207, 185, 203, 151, 208, 236, 21, 56, 179, 206, 205, 63, 175, 157, 1, 204, 16, 250, 70, 230, 25, 87, 2, 34, 23, 213, 171, 218, 186, 72, 163, 240, 12, 242, 31, 18, 192, 228, 1, 24, 28, 212, 53, 210, 150, 44, 240, 228, 75, 179, 62, 26, 254, 14, 59, 154, 6, 192, 197, 9, 194, 238, 31, 28, 224, 72, 254, 228, 172, 244, 78, 151, 219, 54, 94, 183, 158, 36, 208, 153, 187, 76, 185, 253, 75, 24, 32, 82, 52, 94, 6, 72, 29, 244, 220, 47, 212, 20, 81, 21, 72, 215, 208, 234, 82, 163, 226, 181, 182, 45, 40, 178, 214, 47, 218, 249, 12, 252, 31, 195, 248, 73, 220, 56, 31, 196, 33, 203, 202, 61, 36, 179, 236, 197, 56, 210, 245, 8, 244, 222, 20, 83, 20, 148, 207, 62, 33, 12, 237, 37, 246, 185, 127, 78, 95, 174, 155, 204, 33, 237, 46, 186, 79, 212, 71, 99, 26, 230, 12, 49, 234, 230, 203, 42, 89, 173, 205, 3, 207, 73, 56, 211, 3, 33, 246, 52, 7, 53, 209, 174, 86, 65, 182, 103, 75, 59, 74, 78, 99, 30, 102, 218, 231, 206, 217, 190, 236, 20, 25, 226, 193, 210, 88, 188, 72, 81, 118, 49, 13, 115, 31, 235, 53, 113, 44, 203, 74, 208, 199, 66, 42, 108, 63, 62, 13, 252, 245, 213, 246, 169, 97, 2, 56, 104, 222, 44, 206, 30, 74, 112, 239, 245, 223, 191, 33, 102, 11, 21, 249, 99, 231, 4, 64, 222, 24, 164, 68, 15, 19, 18, 106, 20, 247, 59, 243, 184, 41, 34, 105, 238, 100, 223, 9, 30, 166, 253, 235, 36, 98, 199, 193, 178, 7, 66, 36, 87, 11, 105, 69, 218, 16, 76, 63, 95, 12, 63, 27, 238, 101, 201, 16, 223, 189, 59, 236, 181, 204, 208, 181, 183, 238, 80, 210, 78, 58, 80, 212, 5, 29, 198, 47, 31, 239, 9, 251, 214, 191, 76, 0, 223, 99, 251, 56, 82, 4, 95, 80, 55, 239, 36, 91, 255, 219, 228, 253, 64, 71, 224, 9, 27, 254, 55, 218, 186, 86, 118, 210, 92, 204, 235, 255, 200, 189, 214, 104, 20, 236, 64, 22, 18, 255, 65, 177, 219, 219, 209, 223, 215, 45, 161, 86, 249, 190, 183, 69, 35, 9, 200, 169, 2, 71, 50, 170, 42, 98, 101, 84, 193, 110, 26, 68, 202, 68, 68, 13, 75, 36, 159, 224, 26, 183, 244, 166, 45, 173, 72, 8, 59, 224, 191, 234, 58, 37, 253, 50, 66, 86, 167, 30, 186, 237, 80, 237, 30, 47, 241, 166, 170, 231, 194, 166, 15, 33, 182, 187, 68, 16, 163, 237, 34, 77, 37, 238, 170, 252, 209, 253, 62, 13, 20, 2, 212, 168, 225, 206, 0, 255, 1, 46, 214, 234, 186, 171, 62, 203, 155, 240, 186, 248, 83, 31, 29, 56, 25, 226, 245, 69, 138, 177, 238, 229, 4, 70, 249, 174, 58, 167, 22, 249, 194, 159, 245, 209, 14, 66, 223, 166, 168, 63, 218, 26, 26, 192, 157, 214, 42, 210, 132, 244, 88, 252, 49, 20, 180, 218, 15, 17, 233, 32, 218, 12, 223, 51, 235, 178, 224, 52, 30, 55, 178, 54, 171, 7, 171, 170, 183, 35, 28, 192, 185, 39, 177, 21, 139, 182, 241, 227, 56, 226, 152, 218, 252, 172, 229, 135, 196, 178, 61, 58, 35, 15, 168, 228, 76, 216, 37, 198, 244, 207, 197, 189, 228, 159, 212, 232, 247, 59, 43, 20, 19, 178, 38, 39, 206, 186, 8, 167, 156, 168, 132, 186, 173, 29, 1, 94, 62, 138, 74, 166, 249, 178, 75, 76, 132, 149, 136, 176, 246, 43, 187, 246, 170, 20, 64, 191, 190, 17, 17, 18, 234, 3, 38, 75, 165, 13, 165, 52, 74, 220, 217, 2, 32, 151, 235, 187, 40, 10, 175, 6, 204, 184, 77, 214, 249, 5, 200, 28, 167, 174, 254, 36, 205, 186, 244, 46, 27, 212, 151, 233, 212, 173, 19, 215, 23, 189, 179, 41, 220, 63, 249, 197, 198, 206, 43, 191, 65, 181, 216, 211, 239, 208, 156, 51, 4, 75, 237, 63, 67, 60, 163, 90, 231, 232, 254, 241, 11, 188, 200, 4, 150, 40, 212, 46, 220, 237, 200, 8, 46, 70, 88, 254, 155, 68, 205, 79, 54, 225, 35, 54, 7, 40, 216, 16, 76, 164, 12, 65, 1, 75, 254, 57, 74, 177, 179, 93, 28, 200, 245, 0, 207, 206, 227, 169, 23, 49, 7, 44, 195, 204, 84, 22, 244, 231, 67, 66, 12, 242, 113, 253, 115, 166, 114, 191, 62, 91, 30, 219, 60, 53, 243, 37, 29, 1, 15, 81, 219, 60, 12, 73, 32, 71, 13, 67, 243, 226, 10, 227, 245, 240, 62, 229, 86, 17, 222, 104, 89, 61, 159, 254, 31, 217, 214, 233, 97, 61, 31, 211, 190, 79, 9, 58, 241, 65, 33, 15, 13, 93, 85, 32, 126, 27, 223, 70, 236, 43, 29, 42, 76, 9, 125, 37, 46, 112, 53, 89, 57, 85, 40, 62, 64, 202, 245, 79, 245, 66, 40, 92, 48, 221, 211, 5, 29, 96, 85, 238, 117, 225, 70, 93, 227, 1, 177, 28, 72, 31, 217, 84, 228, 57, 109, 127, 94, 34, 169, 174, 184, 62, 38, 76, 204, 198, 253, 202, 78, 198, 70, 220, 85, 95, 203, 221, 197, 73, 9, 201, 220, 42, 246, 230, 252, 62, 226, 91, 218, 87, 70, 54, 41, 204, 216, 57, 99, 223, 41, 237, 45, 223, 60, 72, 49, 221, 218, 92, 59, 67, 45, 51, 220, 29, 51, 81, 78, 66, 193, 81, 32, 3, 99, 6, 196, 13, 7, 223, 3, 16, 17, 73, 234, 53, 93, 199, 82, 34, 57, 255, 189, 29, 104, 225, 5, 103, 64, 90, 216, 239, 63, 201, 192, 65, 87, 105, 184, 249, 197, 68, 16, 12, 28, 174, 89, 252, 93, 170, 255, 13, 27, 22, 36, 223, 193, 67, 255, 28, 248, 246, 67, 37, 4, 253, 50, 3, 79, 214, 35, 207, 60, 226, 212, 194, 240, 56, 252, 237, 44, 35, 177, 190, 75, 238, 165, 213, 67, 233, 38, 83, 206, 249, 197, 71, 193, 178, 224, 12, 58, 242, 70, 29, 197, 211, 48, 77, 233, 236, 178, 156, 205, 54, 89, 223, 216, 19, 220, 201, 229, 50, 7, 193, 52, 81, 62, 215, 36, 229, 57, 38, 249, 254, 197, 63, 180, 236, 67, 34, 215, 243, 59, 148, 180, 203, 233, 65, 191, 173, 157, 169, 4, 66, 181, 13, 201, 182, 169, 46, 186, 196, 52, 14, 186, 8, 12, 224, 35, 165, 199, 53, 39, 159, 40, 215, 15, 88, 60, 41, 23, 177, 24, 207, 5, 177, 45, 62, 37, 25, 7, 239, 24, 41, 199, 34, 65, 183, 184, 77, 239, 190, 204, 34, 76, 221, 29, 192, 192, 14, 253, 225, 245, 40, 206, 226, 50, 79, 243, 46, 9, 48, 175, 85, 91, 33, 92, 173, 62, 247, 35, 151, 218, 195, 71, 175, 79, 50, 55, 208, 6, 49, 244, 69, 5, 90, 227, 19, 54, 59, 187, 230, 3, 29, 39, 28, 233, 207, 103, 52, 14, 221, 223, 55, 76, 93, 38, 207, 33, 61, 58, 13, 249, 73, 52, 208, 47, 82, 219, 247, 76, 179, 254, 19, 245, 13, 248, 232, 229, 207, 232, 41, 47, 40, 8, 206, 77, 56, 198, 183, 61, 21, 10, 205, 239, 216, 242, 226, 82, 222, 92, 4, 254, 245, 78, 240, 66, 193, 213, 53, 59, 31, 59, 73, 26, 76, 81, 9, 28, 188, 34, 230, 230, 96, 50, 198, 247, 35, 36, 91, 76, 11, 21, 42, 39, 207, 115, 247, 198, 250, 255, 40, 249, 199, 246, 88, 200, 39, 249, 231, 243, 46, 4, 209, 13, 60, 67, 38, 24, 7, 60, 9, 69, 12, 251, 210, 174, 227, 47, 55, 222, 187, 233, 94, 215, 209, 96, 184, 207, 191, 204, 223, 156, 203, 22, 17, 55, 85, 232, 35, 45, 36, 196, 247, 214, 34, 12, 2, 243, 189, 12, 60, 48, 104, 50, 58, 21, 83, 4, 198, 194, 4, 44, 71, 68, 2, 4, 68, 87, 11, 184, 64, 85, 37, 89, 147, 227, 104, 171, 36, 5, 3, 195, 183, 84, 86, 70, 208, 68, 28, 18, 59, 196, 85, 186, 3, 202, 178, 184, 197, 41, 20, 234, 240, 195, 224, 23, 188, 20, 51, 221, 46, 64, 237, 74, 177, 228, 95, 14, 72, 255, 62, 48, 214, 68, 255, 176, 83, 19, 164, 66, 67, 196, 185, 66, 47, 92, 240, 250, 197, 86, 0, 193, 177, 175, 195, 87, 2, 59, 209, 79, 247, 5, 66, 163, 38, 187, 212, 59, 51, 209, 163, 225, 78, 17, 9, 222, 36, 25, 205, 249, 167, 182, 76, 241, 245, 24, 176, 67, 14, 252, 234, 23, 179, 22, 63, 16, 250, 190, 43, 215, 3, 228, 3, 48, 56, 179, 247, 175, 183, 18, 187, 60, 246, 11, 201, 72, 86, 7, 252, 237, 247, 63, 37, 10, 26, 202, 185, 159, 60, 233, 157, 243, 238, 213, 26, 48, 188, 200, 78, 200, 14, 13, 34, 200, 166, 200, 249, 181, 18, 182, 10, 80, 175, 208, 219, 0, 80, 226, 246, 0, 22, 218, 216, 78, 67, 244, 71, 228, 227, 185, 235, 196, 31, 230, 65, 218, 76, 38, 215, 195, 176, 183, 19, 173, 31, 215, 3, 224, 201, 82, 53, 8, 213, 237, 240, 245, 174, 56, 237, 234, 164, 233, 255, 25, 244, 10, 16, 202, 173, 89, 212, 129, 164, 221, 170, 244, 171, 181, 221, 34, 209, 255, 33, 17, 249, 65, 222, 218, 229, 54, 35, 19, 72, 14, 64, 211, 152, 55, 60, 234, 56, 202, 223, 149, 76, 161, 207, 13, 14, 55, 55, 64, 167, 251, 30, 249, 196, 151, 225, 204, 193, 44, 62, 40, 19, 182, 104, 37, 167, 166, 196, 42, 13, 226, 29, 233, 59, 7, 211, 39, 175, 44, 184, 66, 24, 77, 231, 199, 154, 84, 65, 93, 251, 25, 196, 30, 21, 65, 19, 215, 18, 198, 189, 230, 28, 61, 77, 166, 204, 27, 10, 217, 18, 234, 85, 62, 157, 21, 21, 51, 41, 165, 39, 14, 2, 231, 86, 204, 235, 190, 50, 51, 60, 87, 5, 240, 12, 66, 46, 197, 7, 229, 61, 230, 186, 247, 196, 86, 33, 70, 250, 249, 80, 217, 8, 31, 45, 191, 54, 33, 214, 208, 228, 147, 157, 59, 48, 200, 190, 39, 6, 234, 68, 47, 47, 55, 240, 223, 160, 215, 95, 0, 157, 208, 53, 225, 10, 8, 70, 7, 191, 63, 194, 16, 215, 76, 196, 76, 66, 109, 23, 18, 47, 82, 19, 181, 215, 107, 201, 243, 30, 177, 188, 61, 192, 235, 219, 39, 191, 200, 9, 208, 58, 29, 203, 10, 87, 209, 233, 67, 76, 203, 39, 224, 11, 252, 199, 41, 253, 209, 218, 91, 9, 63, 48, 13, 184, 51, 94, 213, 44, 16, 211, 190, 255, 242, 112, 94, 48, 54, 13, 2, 25, 27, 186, 70, 52, 225, 189, 49, 237, 10, 103, 67, 252, 59, 214, 15, 81, 38, 222, 11, 176, 251, 13, 224, 234, 190, 254, 66, 202, 36, 26, 255, 232, 25, 248, 62, 25, 231, 67, 225, 189, 75, 20, 43, 230, 17, 27, 40, 36, 245, 193, 186, 1, 56, 18, 98, 228, 24, 197, 63, 182, 237, 55, 221, 200, 99, 70, 225, 228, 56, 59, 234, 184, 1, 241, 161, 108, 6, 220, 48, 67, 181, 190, 200, 101, 110, 230, 46, 30, 122, 243, 74, 54, 235, 86, 8, 76, 111, 110, 184, 233, 239, 71, 246, 60, 119, 212, 104, 64, 239, 123, 231, 231, 219, 186, 231, 17, 48, 207, 43, 47, 101, 220, 27, 226, 226, 93, 161, 41, 48, 85, 83, 214, 92, 69, 242, 57, 48, 226, 216, 11, 203, 78, 8, 90, 77, 28, 239, 108, 221, 10, 104, 41, 127, 191, 209, 225, 200, 27, 255, 60, 74, 83, 181, 125, 38, 66, 63, 2, 186, 91, 103, 201, 205, 77, 143, 3, 45, 6, 15, 21, 68, 220, 73, 47, 51, 201, 15, 183, 253, 81, 28, 195, 2, 66, 213, 224, 245, 8, 70, 4, 85, 81, 84, 55, 32, 182, 195, 70, 79, 77, 240, 84, 15, 240, 31, 246, 108, 11, 72, 52, 4, 43, 50, 212, 239, 174, 96, 58, 240, 47, 246, 248, 50, 44, 14, 188, 88, 102, 20, 210, 49, 234, 179, 24, 21, 196, 51, 199, 152, 245, 180, 8, 195, 52, 243, 25, 37, 48, 27, 55, 72, 9, 238, 56, 23, 87, 221, 64, 56, 66, 54, 87, 104, 11, 177, 74, 238, 64, 253, 167, 236, 42, 5, 68, 196, 25, 82, 41, 186, 184, 89, 204, 202, 84, 16, 20, 53, 18, 212, 229, 249, 51, 187, 54, 45, 235, 5, 13, 209, 83, 24, 234, 16, 195, 194, 199, 241, 12, 61, 245, 2, 254, 240, 80, 79, 65, 183, 62, 45, 50, 73, 244, 219, 67, 168, 234, 204, 187, 188, 78, 233, 9, 193, 209, 246, 235, 255, 52, 157, 181, 27, 191, 65, 39, 65, 171, 215, 226, 187, 45, 42, 20, 15, 0, 75, 235, 14, 215, 29, 87, 139, 235, 72, 182, 69, 180, 184, 246, 209, 201, 7, 24, 23, 207, 74, 223, 61, 230, 59, 229, 53, 196, 218, 6, 222, 216, 46, 228, 37, 206, 31, 163, 64, 218, 14, 227, 65, 211, 200, 23, 27, 252, 201, 174, 89, 76, 231, 32, 61, 243, 58, 233, 253, 243, 253, 214, 245, 71, 221, 97, 211, 60, 249, 232, 255, 38, 197, 129, 76, 32, 61, 248, 52, 37, 112, 50, 216, 36, 228, 179, 177, 235, 34, 142, 46, 194, 50, 217, 142, 236, 164, 63, 181, 37, 29, 227, 100, 250, 213, 63, 9, 26, 18, 63, 57, 211, 196, 189, 89, 250, 18, 231, 213, 101, 55, 189, 5, 221, 69, 69, 24, 230, 7, 225, 60, 88, 154, 223, 116, 108, 226, 242, 202, 231, 53, 255, 185, 61, 197, 210, 150, 69, 107, 109, 16, 26, 179, 218, 44, 3, 18, 47, 175, 95, 3, 205, 196, 219, 17, 48, 25, 25, 242, 38, 196, 107, 34, 209, 8, 5, 31, 51, 60, 123, 27, 252, 239, 225, 253, 232, 75, 233, 196, 239, 43, 2, 213, 84, 19, 77, 191, 206, 124, 211, 21, 29, 244, 209, 40, 38, 203, 92, 67, 28, 255, 66, 196, 186, 82, 20, 96, 41, 208, 5, 187, 17, 22, 44, 191, 61, 172, 155, 156, 11, 221, 99, 125, 234, 44, 207, 111, 40, 80, 60, 86, 247, 21, 191, 28, 110, 218, 20, 68, 38, 228, 229, 190, 200, 221, 210, 248, 248, 150, 0, 3, 80, 236, 94, 158, 30, 184, 65, 236, 3, 65, 33, 207, 228, 200, 197, 59, 70, 177, 117, 210, 62, 1, 81, 181, 78, 212, 25, 55, 184, 151, 197, 223, 209, 230, 203, 218, 191, 80, 243, 4, 22, 68, 197, 20, 115, 26, 57, 84, 71, 186, 223, 65, 85, 54, 26, 82, 99, 27, 218, 188, 11, 206, 34, 235, 72, 48, 225, 219, 208, 247, 62, 79, 187, 61, 165, 234, 18, 235, 81, 190, 190, 52, 9, 254, 197, 96, 21, 30, 209, 47, 26, 199, 70, 22, 188, 215, 213, 61, 102, 220, 163, 15, 22, 48, 181, 94, 217, 14, 111, 63, 66, 47, 20, 221, 114, 22, 152, 85, 7, 192, 42, 1, 109, 173, 254, 65, 54, 205, 236, 89, 38, 83, 190, 99, 229, 203, 85, 52, 171, 114, 247, 157, 19, 36, 71, 50, 65, 10, 48, 30, 232, 214, 11, 17, 237, 170, 162, 152, 148, 24, 217, 55, 11, 248, 221, 164, 235, 4, 254, 13, 228, 185, 3, 250, 16, 199, 216, 179, 68, 222, 30, 14, 154, 170, 108, 43, 5, 50, 227, 46, 51, 247, 36, 186, 174, 191, 71, 28, 216, 182, 96, 74, 171, 113, 243, 167, 68, 103, 81, 235, 183, 10, 170, 6, 57, 14, 182, 214, 219, 43, 201, 172, 82, 205, 62, 20, 63, 16, 51, 237, 206, 180, 154, 44, 189, 13, 91, 198, 103, 66, 228, 45, 67, 225, 26, 81, 251, 202, 186, 227, 250, 232, 42, 38, 17, 174, 178, 17, 61, 68, 150, 109, 22, 76, 90, 11, 166, 124, 181, 54, 163, 63, 71, 74, 196, 20, 228, 255, 16, 192, 230, 230, 205, 201, 188, 5, 193, 172, 231, 68, 170, 242, 60, 90, 184, 218, 255, 36, 68, 68, 190, 64, 197, 242, 72, 197, 214, 240, 1, 42, 240, 247, 67, 7, 211, 245, 222, 56, 43, 6, 244, 69, 225, 23, 237, 123, 115, 118, 222, 42, 146, 251, 91, 37, 94, 39, 51, 168, 198, 78, 64, 68, 79, 33, 17, 159, 217, 60, 27, 55, 229, 69, 29, 220, 91, 241, 215, 170, 96, 117, 187, 208, 160, 198, 0, 52, 205, 99, 198, 144, 29, 200, 24, 42, 219, 217, 189, 236, 12, 166, 219, 183, 235, 212, 239, 41, 32, 35, 141, 240, 159, 211, 103, 25, 140, 174, 181, 154, 240, 90, 72, 7, 31, 9, 176, 62, 4, 54, 27, 36, 230, 4, 64, 43, 225, 132, 178, 22, 238, 82, 147, 175, 173, 161, 85, 244, 89, 199, 58, 74, 5, 26, 96, 61, 163, 46, 72, 171, 66, 32, 50, 37, 222, 23, 0, 41, 186, 27, 91, 194, 10, 0, 83, 251, 88, 231, 160, 179, 80, 248, 170, 6, 184, 138, 158, 252, 2, 14, 140, 30, 15, 166, 48, 143, 208, 207, 59, 31, 29, 49, 82, 50, 254, 180, 168, 46, 12, 218, 166, 135, 8, 189, 212, 81, 173, 32, 19, 240, 71, 180, 232, 141, 189, 79, 202, 54, 25, 246, 80, 154, 54, 39, 143, 47, 22, 188, 66, 196, 216, 83, 52, 232, 212, 209, 68, 5, 178, 43, 159, 238, 15, 237, 252, 175, 204, 202, 31, 61, 247, 210, 188, 218, 174, 75, 200, 99, 197, 151, 234, 246, 56, 5, 200, 87, 249, 48, 18, 77, 99, 71, 163, 209, 188, 96, 34, 185, 200, 245, 22, 253, 65, 185, 213, 179, 49, 226, 152, 7, 197, 255, 149, 151, 194, 245, 181, 147, 76, 24, 142, 159, 31, 67, 172, 154, 15, 165, 97, 92, 35, 15, 161, 76, 234, 1, 89, 204, 169, 90, 249, 79, 53, 17, 18, 47, 28, 77, 243, 229, 32, 167, 181, 161, 11, 21, 72, 42, 140, 42, 27, 164, 66, 46, 31, 216, 62, 205, 10, 210, 43, 57, 219, 202, 211, 43, 71, 243, 209, 158, 154, 166, 33, 0, 21, 1, 31, 8, 186, 229, 135, 61, 165, 14, 52, 26, 57, 71, 191, 237, 184, 53, 212, 76, 89, 153, 164, 17, 25, 5, 238, 49, 39, 242, 243, 229, 33, 16, 101, 164, 192, 152, 249, 248, 25, 88, 92, 188, 68, 204, 159, 200, 170, 34, 242, 78, 44, 8, 225, 211, 35, 244, 101, 48, 14, 228, 78, 207, 207, 66, 223, 166, 10, 240, 68, 42, 90, 81, 168, 16, 19, 80, 226, 232, 157, 238, 163, 56, 187, 15, 240, 164, 41, 77, 5, 32, 244, 147, 149, 99, 30, 250, 194, 32, 208, 27, 183, 249, 11, 42, 246, 50, 58, 179, 162, 52, 66, 182, 204, 218, 34, 169, 31, 146, 26, 202, 245, 172, 71, 37, 82, 195, 29, 14, 174, 57, 166, 170, 172, 16, 13, 87, 152, 35, 18, 240, 67, 195, 205, 179, 18, 248, 64, 140, 249, 184, 168, 139, 216, 17, 170, 144, 245, 252, 231, 162, 229, 22, 81, 7, 220, 88, 58, 192, 34, 170, 149, 90, 146, 30, 168, 88, 199, 80, 155, 173, 178, 211, 159, 61, 201, 10, 206, 74, 170, 54, 2, 154, 25, 203, 237, 0, 143, 67, 191, 164, 44, 92, 86, 212, 39, 79, 202, 181, 162, 226, 14, 190, 90, 96, 84, 220, 252, 217, 6, 52, 10, 226, 63, 176, 147, 254, 57, 86, 86, 129, 90, 27, 47, 41, 7, 228, 35, 164, 67, 172, 157, 94, 203, 33, 50, 141, 171, 48, 160, 244, 203, 34, 110, 33, 171, 102, 12, 255, 244, 175, 194, 63, 243, 39, 232, 165, 5, 254, 246, 199, 22, 23, 164, 182, 237, 16, 65, 177, 113, 206, 185, 239, 9, 183, 50, 19, 62, 2, 228, 226, 239, 253, 46, 210, 234, 148, 207, 97, 42, 6, 182, 59, 201, 233, 89, 91, 231, 218, 239, 13, 74, 253, 251, 255, 4, 0, 0, 0, 128, 0, 0, 0, 24, 226, 255, 255, 101, 252, 255, 255, 173, 235, 255, 255, 26, 242, 255, 255, 161, 1, 0, 0, 54, 216, 255, 255, 62, 8, 0, 0, 99, 241, 255, 255, 236, 233, 255, 255, 176, 229, 255, 255, 126, 25, 0, 0, 125, 250, 255, 255, 111, 249, 255, 255, 94, 230, 255, 255, 23, 4, 0, 0, 151, 3, 0, 0, 17, 245, 255, 255, 236, 3, 0, 0, 202, 237, 255, 255, 139, 249, 255, 255, 70, 3, 0, 0, 115, 240, 255, 255, 85, 237, 255, 255, 142, 238, 255, 255, 167, 230, 255, 255, 40, 255, 255, 255, 216, 8, 0, 0, 18, 215, 255, 255, 36, 249, 255, 255, 9, 220, 255, 255, 192, 26, 0, 0, 69, 248, 255, 255, 214, 253, 251, 255, 4, 0, 0, 0, 0, 18, 0, 0, 83, 189, 172, 95, 80, 243, 93, 113, 221, 37, 3, 32, 148, 238, 218, 191, 4, 204, 206, 11, 178, 2, 249, 103, 223, 216, 53, 62, 46, 210, 87, 168, 112, 17, 227, 176, 250, 198, 229, 23, 24, 60, 162, 28, 156, 14, 177, 165, 168, 195, 1, 27, 108, 108, 10, 164, 127, 36, 242, 64, 167, 171, 176, 243, 15, 24, 185, 237, 75, 31, 168, 209, 64, 0, 213, 91, 243, 101, 166, 132, 61, 4, 87, 93, 247, 88, 37, 45, 50, 191, 208, 215, 240, 211, 23, 89, 74, 1, 211, 146, 66, 43, 195, 242, 69, 242, 55, 26, 173, 70, 193, 148, 182, 108, 107, 252, 167, 158, 66, 165, 118, 238, 156, 241, 211, 33, 55, 203, 173, 90, 179, 233, 220, 29, 250, 42, 101, 53, 45, 150, 194, 154, 141, 28, 161, 89, 214, 174, 159, 212, 237, 4, 167, 64, 32, 58, 1, 169, 221, 51, 210, 116, 242, 213, 19, 79, 251, 180, 178, 210, 77, 10, 20, 89, 208, 157, 181, 246, 39, 249, 172, 83, 96, 58, 217, 187, 146, 190, 246, 210, 86, 253, 104, 245, 68, 162, 31, 171, 26, 106, 166, 178, 48, 160, 253, 171, 226, 90, 21, 237, 6, 1, 19, 241, 186, 236, 35, 36, 172, 15, 181, 224, 180, 234, 244, 56, 221, 238, 236, 227, 95, 0, 42, 201, 66, 217, 70, 39, 159, 218, 82, 3, 88, 203, 18, 175, 55, 248, 163, 48, 176, 204, 88, 253, 203, 20, 37, 52, 2, 35, 161, 25, 254, 220, 241, 58, 73, 50, 85, 241, 250, 52, 84, 51, 171, 81, 44, 166, 7, 182, 27, 179, 19, 21, 11, 29, 101, 1, 217, 48, 236, 48, 227, 94, 219, 33, 42, 79, 35, 15, 42, 70, 65, 203, 38, 56, 209, 209, 255, 36, 246, 40, 13, 225, 88, 57, 224, 64, 46, 187, 236, 202, 183, 222, 52, 221, 26, 190, 34, 250, 83, 249, 254, 24, 25, 68, 16, 80, 238, 50, 30, 225, 242, 220, 185, 70, 208, 31, 32, 44, 15, 242, 74, 201, 249, 252, 1, 232, 213, 69, 216, 24, 3, 244, 65, 241, 180, 238, 70, 211, 213, 190, 49, 19, 55, 218, 219, 50, 15, 200, 3, 0, 14, 29, 198, 223, 75, 6, 239, 186, 222, 36, 246, 196, 182, 3, 191, 205, 23, 23, 197, 190, 2, 249, 51, 44, 237, 228, 67, 194, 19, 202, 253, 188, 193, 209, 248, 204, 16, 42, 18, 226, 51, 183, 217, 248, 200, 198, 245, 56, 2, 50, 27, 204, 190, 183, 249, 6, 12, 23, 226, 224, 9, 196, 205, 217, 180, 39, 244, 35, 50, 3, 22, 63, 127, 8, 244, 233, 228, 13, 217, 217, 191, 8, 3, 26, 197, 182, 39, 244, 186, 47, 254, 55, 195, 3, 15, 234, 39, 62, 20, 192, 14, 60, 1, 188, 84, 227, 204, 211, 214, 38, 60, 53, 30, 188, 36, 56, 232, 25, 47, 236, 37, 57, 58, 252, 62, 50, 211, 243, 184, 26, 5, 47, 248, 73, 53, 174, 5, 35, 196, 187, 184, 19, 230, 215, 73, 233, 234, 232, 205, 22, 232, 252, 200, 196, 220, 54, 226, 27, 14, 223, 208, 247, 51, 192, 231, 193, 7, 29, 111, 216, 26, 23, 33, 255, 182, 10, 18, 177, 30, 181, 204, 240, 66, 55, 235, 220, 3, 252, 197, 46, 40, 60, 196, 192, 55, 87, 24, 79, 247, 198, 187, 19, 77, 230, 58, 206, 209, 241, 34, 133, 238, 13, 7, 21, 41, 82, 37, 58, 23, 199, 6, 145, 243, 220, 190, 64, 81, 168, 191, 30, 77, 196, 8, 30, 198, 129, 42, 162, 7, 167, 184, 245, 11, 55, 40, 134, 250, 5, 48, 232, 189, 247, 218, 213, 165, 248, 9, 237, 155, 90, 85, 138, 150, 23, 24, 189, 64, 215, 250, 195, 164, 203, 90, 161, 7, 221, 51, 137, 159, 196, 39, 76, 30, 64, 198, 137, 171, 0, 86, 59, 22, 24, 75, 197, 19, 51, 1, 37, 201, 50, 0, 249, 33, 219, 13, 20, 147, 24, 152, 13, 210, 190, 250, 54, 217, 225, 176, 207, 18, 84, 81, 207, 26, 73, 35, 239, 33, 53, 58, 246, 67, 40, 247, 92, 9, 213, 222, 210, 246, 192, 246, 241, 221, 47, 13, 1, 209, 232, 45, 41, 70, 109, 208, 6, 210, 77, 38, 57, 37, 15, 84, 95, 148, 87, 25, 13, 224, 76, 97, 11, 40, 32, 155, 187, 214, 38, 166, 184, 22, 205, 65, 14, 233, 246, 76, 203, 45, 27, 23, 194, 164, 103, 21, 21, 102, 241, 96, 234, 230, 22, 103, 36, 23, 88, 44, 199, 16, 8, 87, 7, 179, 229, 34, 23, 43, 235, 62, 190, 196, 111, 187, 83, 227, 201, 213, 38, 26, 50, 231, 220, 46, 204, 161, 57, 2, 182, 172, 42, 65, 225, 247, 160, 223, 170, 24, 31, 186, 30, 53, 173, 18, 78, 235, 73, 1, 66, 67, 15, 244, 34, 176, 48, 184, 63, 167, 169, 145, 17, 89, 149, 255, 97, 46, 80, 250, 223, 178, 92, 219, 255, 81, 10, 222, 250, 59, 92, 94, 81, 135, 162, 16, 78, 172, 211, 182, 15, 102, 180, 27, 204, 215, 188, 199, 195, 39, 160, 194, 249, 51, 34, 82, 178, 199, 190, 224, 79, 59, 172, 118, 58, 60, 87, 23, 83, 145, 255, 21, 53, 177, 73, 49, 176, 171, 232, 143, 29, 102, 234, 224, 36, 81, 59, 38, 35, 216, 168, 45, 26, 73, 231, 8, 22, 27, 243, 18, 62, 234, 248, 97, 196, 190, 216, 73, 16, 0, 77, 77, 144, 116, 190, 35, 65, 146, 92, 252, 164, 241, 218, 55, 233, 75, 107, 29, 218, 205, 99, 63, 197, 197, 36, 199, 73, 4, 100, 27, 198, 145, 44, 170, 171, 163, 200, 252, 88, 233, 245, 218, 55, 86, 34, 96, 194, 81, 23, 98, 213, 31, 207, 236, 169, 66, 31, 79, 84, 28, 200, 34, 197, 88, 198, 93, 42, 211, 208, 138, 242, 218, 14, 213, 93, 159, 218, 189, 60, 235, 201, 27, 179, 100, 203, 208, 122, 189, 122, 233, 78, 178, 33, 213, 103, 205, 244, 32, 13, 201, 42, 25, 78, 44, 234, 251, 54, 72, 112, 242, 17, 54, 67, 99, 227, 151, 215, 60, 2, 5, 110, 20, 194, 9, 79, 240, 255, 55, 228, 30, 237, 71, 19, 111, 8, 177, 160, 10, 220, 38, 249, 80, 236, 70, 105, 95, 97, 62, 32, 55, 119, 141, 26, 59, 1, 172, 127, 68, 190, 11, 237, 62, 88, 3, 204, 171, 160, 205, 56, 199, 211, 162, 223, 237, 44, 180, 250, 45, 207, 133, 58, 254, 63, 102, 205, 110, 66, 192, 166, 58, 6, 162, 93, 17, 179, 48, 57, 167, 154, 49, 154, 194, 85, 79, 76, 42, 183, 23, 187, 248, 221, 201, 6, 32, 31, 214, 174, 85, 46, 204, 203, 27, 19, 226, 223, 235, 75, 233, 52, 63, 232, 65, 201, 246, 56, 204, 9, 63, 177, 174, 90, 1, 49, 55, 62, 231, 201, 65, 239, 85, 234, 69, 204, 15, 228, 45, 200, 44, 69, 207, 54, 26, 18, 6, 182, 251, 237, 239, 244, 235, 129, 8, 78, 236, 180, 23, 41, 180, 78, 36, 52, 74, 55, 18, 236, 104, 210, 8, 227, 247, 0, 38, 230, 39, 202, 222, 74, 23, 188, 194, 193, 229, 189, 42, 78, 188, 201, 108, 220, 12, 220, 175, 56, 195, 67, 209, 10, 6, 231, 71, 213, 79, 65, 53, 52, 72, 224, 76, 196, 31, 68, 178, 202, 25, 195, 47, 252, 34, 57, 205, 50, 85, 251, 66, 2, 181, 219, 64, 227, 38, 191, 6, 78, 23, 208, 237, 236, 62, 214, 71, 255, 3, 226, 191, 245, 213, 108, 27, 184, 3, 105, 189, 14, 105, 47, 70, 19, 212, 37, 14, 14, 59, 220, 7, 84, 198, 230, 25, 239, 49, 60, 70, 4, 56, 12, 86, 176, 10, 43, 246, 189, 251, 56, 13, 74, 250, 78, 10, 144, 231, 223, 251, 16, 195, 40, 211, 72, 16, 213, 25, 28, 251, 222, 210, 61, 220, 6, 233, 47, 44, 212, 250, 231, 248, 23, 248, 28, 18, 244, 254, 159, 44, 169, 237, 179, 164, 187, 12, 13, 12, 206, 213, 207, 15, 229, 197, 154, 42, 11, 23, 31, 237, 188, 176, 170, 159, 246, 246, 32, 244, 171, 27, 251, 159, 250, 191, 246, 167, 213, 192, 157, 198, 179, 215, 70, 25, 37, 175, 254, 229, 208, 201, 198, 34, 136, 74, 19, 86, 21, 225, 54, 236, 215, 72, 251, 130, 49, 37, 178, 224, 53, 244, 212, 245, 223, 4, 29, 71, 10, 207, 136, 15, 189, 71, 35, 46, 148, 71, 211, 17, 173, 220, 71, 160, 147, 214, 7, 234, 19, 14, 37, 224, 139, 170, 183, 226, 199, 145, 207, 54, 23, 169, 38, 183, 191, 207, 196, 113, 17, 76, 159, 188, 201, 156, 30, 13, 20, 75, 192, 55, 156, 100, 78, 255, 211, 145, 163, 228, 234, 154, 188, 222, 41, 148, 189, 168, 241, 239, 61, 174, 129, 212, 68, 180, 102, 250, 77, 206, 41, 160, 184, 175, 255, 6, 16, 214, 214, 46, 69, 191, 182, 112, 48, 82, 233, 120, 116, 75, 185, 74, 182, 15, 200, 110, 72, 155, 94, 210, 237, 219, 249, 244, 36, 243, 170, 217, 71, 223, 214, 24, 230, 155, 31, 241, 219, 27, 170, 94, 58, 172, 44, 69, 7, 26, 6, 195, 255, 176, 182, 0, 227, 209, 87, 180, 39, 173, 150, 2, 20, 42, 30, 218, 177, 56, 67, 150, 81, 63, 87, 18, 77, 218, 246, 38, 96, 44, 242, 31, 149, 172, 158, 254, 240, 202, 65, 198, 42, 23, 249, 87, 64, 162, 194, 98, 254, 73, 15, 202, 22, 164, 25, 239, 23, 193, 250, 178, 67, 84, 247, 250, 138, 22, 91, 187, 187, 17, 176, 164, 216, 198, 183, 95, 168, 41, 39, 160, 169, 31, 47, 30, 36, 103, 50, 25, 246, 179, 58, 137, 69, 42, 207, 84, 207, 225, 205, 7, 35, 210, 203, 85, 189, 148, 141, 172, 8, 56, 158, 44, 37, 23, 246, 5, 208, 43, 23, 41, 137, 227, 11, 174, 221, 59, 36, 217, 165, 43, 67, 214, 72, 222, 219, 188, 23, 26, 190, 199, 27, 205, 64, 193, 211, 188, 62, 249, 44, 44, 254, 175, 196, 200, 234, 0, 228, 59, 9, 240, 238, 220, 207, 27, 19, 209, 174, 12, 240, 182, 2, 215, 53, 28, 49, 216, 210, 10, 16, 200, 191, 15, 193, 36, 242, 26, 31, 35, 47, 2, 208, 177, 187, 25, 68, 185, 56, 246, 181, 206, 214, 194, 209, 6, 14, 61, 63, 56, 50, 38, 180, 218, 228, 15, 15, 51, 21, 206, 214, 53, 214, 209, 38, 19, 209, 177, 195, 221, 253, 237, 57, 11, 31, 208, 76, 234, 50, 46, 18, 226, 66, 239, 212, 232, 50, 52, 9, 196, 171, 213, 238, 71, 248, 0, 188, 26, 198, 209, 222, 95, 70, 57, 188, 214, 201, 48, 207, 21, 203, 12, 25, 75, 218, 17, 39, 221, 53, 62, 62, 238, 209, 0, 16, 195, 224, 215, 227, 247, 242, 24, 218, 7, 186, 154, 51, 232, 221, 179, 57, 54, 33, 86, 239, 34, 59, 72, 187, 189, 225, 254, 199, 242, 60, 241, 178, 59, 179, 12, 202, 242, 197, 49, 181, 93, 42, 245, 224, 67, 242, 72, 56, 127, 6, 41, 210, 237, 227, 92, 59, 36, 208, 7, 21, 28, 34, 212, 72, 29, 33, 17, 196, 212, 237, 228, 68, 42, 6, 181, 213, 40, 108, 10, 10, 234, 195, 254, 192, 208, 246, 57, 235, 209, 225, 248, 67, 32, 41, 203, 38, 221, 197, 188, 215, 244, 59, 34, 13, 46, 255, 63, 231, 7, 85, 18, 120, 240, 72, 196, 59, 4, 24, 55, 211, 41, 22, 5, 255, 253, 8, 82, 80, 230, 182, 208, 240, 98, 111, 113, 217, 183, 91, 63, 245, 11, 12, 182, 57, 26, 2, 198, 25, 141, 111, 178, 10, 84, 242, 89, 222, 30, 52, 185, 169, 189, 188, 90, 175, 238, 234, 162, 13, 30, 177, 22, 180, 211, 152, 100, 244, 18, 167, 75, 26, 80, 79, 24, 178, 251, 174, 224, 169, 83, 107, 20, 247, 219, 17, 181, 84, 96, 247, 169, 9, 195, 161, 217, 189, 98, 30, 55, 243, 116, 77, 153, 31, 64, 206, 64, 185, 6, 215, 182, 82, 80, 22, 196, 61, 181, 73, 106, 189, 182, 185, 11, 88, 176, 28, 17, 117, 44, 193, 216, 239, 40, 230, 183, 156, 163, 77, 175, 166, 195, 255, 23, 72, 120, 116, 79, 64, 188, 91, 208, 42, 231, 87, 252, 90, 187, 217, 68, 223, 161, 45, 43, 108, 211, 7, 179, 155, 234, 169, 203, 98, 39, 244, 202, 46, 199, 22, 185, 185, 58, 90, 79, 4, 229, 235, 78, 71, 185, 28, 0, 127, 85, 93, 18, 238, 184, 41, 104, 15, 229, 197, 33, 202, 120, 89, 4, 54, 73, 174, 154, 93, 13, 91, 168, 104, 196, 71, 170, 253, 2, 211, 86, 31, 63, 179, 97, 217, 21, 249, 83, 103, 50, 222, 227, 152, 216, 163, 160, 82, 96, 19, 60, 214, 51, 161, 255, 95, 195, 138, 197, 99, 13, 178, 185, 49, 183, 250, 229, 65, 86, 8, 232, 161, 97, 255, 254, 162, 231, 0, 144, 188, 73, 86, 170, 24, 236, 12, 244, 31, 23, 215, 168, 120, 193, 198, 44, 3, 55, 174, 82, 100, 51, 14, 165, 170, 235, 88, 229, 175, 